#version: 0.2
t h
a n
i n
th e</w>
e r
r e
t i
e n
o f</w>
o n
a r
an d</w>
o u
e d</w>
o r
t o</w>
i s</w>
o n</w>
a l
i t
e s
e r</w>
i n</w>
in g</w>
a t
i s
r o
h a
o r</w>
i l
e s</w>
e l
i c
th e
e c
a c
s t
a l</w>
a ti
o m
w h
a t</w>
T h
a s
n o
v e</w>
u r
a n</w>
e n</w>
a s</w>
d i
p l
en t</w>
a m
f or</w>
i d
t r
o l
u n
e v
e m
u s
o s
a d
th at</w>
i g
a g
e d
a b
p ro
e t
o u</w>
en t
s u
l y</w>
Th e</w>
i m
b e</w>
c on
re s
ar e</w>
s h
ati on</w>
no t</w>
c h
i t</w>
y ou</w>
l a
c om
b e
it h</w>
s .</w>
l o
e .</w>
l i
in g
w ith</w>
u l
I n
v er
e x
f or
ti on</w>
a y</w>
er e</w>
al l</w>
c e</w>
a y
b y</w>
ou n
r i
l e</w>
i r
s ,</w>
ou r</w>
e a
t er
il l</w>
e ,</w>
ati on
ro m</w>
p er
ha ve</w>
f rom</w>
the y</w>
a p
w as</w>
e ar
o w
w ill</w>
s i
i r</w>
o o
A l
a k
at e</w>
o p
ig h
l d</w>
d e
ti on
c i
u t</w>
ic h</w>
q u
th is</w>
t s</w>
a in
ha s</w>
th er</w>
m ent</w>
w or
f f
wh ich</w>
s e
u c
t ed</w>
wh o</w>
an d
the ir</w>
A n
t h</w>
s p
ou ld</w>
er s</w>
t er</w>
h is</w>
In di
it y</w>
r a
on e</w>
d is
l e
o d
h e</w>
u m
H e</w>
p e
s o</w>
os e</w>
an y</w>
p ar
n e
u t
es s
Al la
ou t</w>
g r
s a
y ,</w>
y .</w>
ou r
re c
the m</w>
an g
in d
An d</w>
en d
p or
es s</w>
i v
W e</w>
c l
ur e</w>
' s</w>
c h</w>
un d
u d
ha t</w>
h i
y our</w>
e p
st r
at ed</w>
b el
e t</w>
o ver
ag e</w>
es .</w>
ab le</w>
it s</w>
ti m
ou g
or d
b ut</w>
th er
a r</w>
p r
m o
m e
s ec
ou s</w>
an t</w>
es ,</w>
o pl
t u
o c
as s
be en</w>
w e</w>
Alla h</w>
k no
al l
c oun
s el
re d</w>
i d</w>
f i
es t</w>
w ere</w>
an ce</w>
c re
ha d</w>
the m
u s</w>
o ther</w>
i ti
s t</w>
p os
pe opl
u p
es t
igh t</w>
th ose</w>
am e</w>
ar d
p res
om e</w>
is h
c an</w>
a v
I t</w>
bel i
ev er
o d</w>
m ent
ed .</w>
for m
b r
wh en</w>
p o
W h
2 0
s e</w>
us e</w>
o w</w>
en ce</w>
is t
sh all</w>
on g</w>
b l
ea r</w>
ec t</w>
t o
1 9
d o</w>
ak e</w>
ar y</w>
s er
com m
or e</w>
w e
e y</w>
en c
s ti
p re
i f</w>
w hat</w>
d o
t ur
an c
re n
con t
al so</w>
al ly</w>
pro v
o v
i c</w>
I n</w>
t ,</w>
s o
il l
t w
ad e</w>
Th is</w>
h ar
v i
m an
es e</w>
a in</w>
os t</w>
a il
t e
re l
t .</w>
f ac
Indi a</w>
n o</w>
g e</w>
m ay</w>
m in
e f
over n
k e</w>
com p
ti c
th ere</w>
t ing</w>
g u
tr i
kno w
el l
lo w
ev er</w>
S t
i th
us t</w>
a ,</w>
a u
ed ,</w>
peopl e</w>
b ec
w ould</w>
oug h</w>
i on</w>
su b
id e</w>
a f
d uc
su ch</w>
ow n</w>
as e</w>
g re
d ev
b o
on ly</w>
il e</w>
hi m</w>
an s
f in
ff ic
f ol
P ro
i z
b er</w>
U n
ation s</w>
i on
as t</w>
m is
C h
in ter
C on
a w
a st
ing s</w>
en g
ac c
a d</w>
tion s</w>
y ou
ar d</w>
the n</w>
u p</w>
in e</w>
oo d</w>
ing .</w>
ig n
m ade</w>
ar i
u e</w>
en ti
for e</w>
si on</w>
g iv
p h
t y</w>
A c
G od</w>
k s</w>
b et
ab out</w>
und er</w>
in to</w>
i l</w>
oun d</w>
S h
ation al</w>
sh ould</w>
u b
el l</w>
ser v
sh i
m ore</w>
m ar
c er
em ent</w>
th an</w>
e g
Th ey</w>
f ir
li ke</w>
m y</w>
ac h
C om
it e</w>
w r
a .</w>
f e
a m</w>
k ing</w>
a re
t or
b u
f ul
o b
ic e</w>
m e</w>
u st
ac e</w>
d es
or d</w>
com e</w>
B ut</w>
ing ,</w>
ic al</w>
ent s</w>
d ec
en d</w>
u l</w>
c ri
p a
u re
i ve</w>
sa id
ov er</w>
ti v
s ome</w>
f a
e l</w>
m on
o re
ay ,</w>
p ol
en er
per s
ne w</w>
i f
tw o</w>
s y
re g
el op
h e
th ese</w>
b le</w>
P r
el y</w>
tim e</w>
th ing</w>
h el
us ed</w>
li f
res p
re e</w>
w ith
g o
a j
tr y</w>
i es</w>
y ear
res id
u r</w>
si on
sp ec
ou s
th r
af ter</w>
h er
at t
H is</w>
G overn
on g
o g
ab l
is t</w>
f l
a use</w>
oug h
h im
m at
ac h</w>
be fore</w>
m er
c ol
r u
at h</w>
v is
o m</w>
E x
por t
ro w
or y</w>
i al</w>
f er
m em
L ord</w>
ff er
m ost</w>
I f</w>
Alla h
d s</w>
beli ev
E n
Indi an</w>
il d
con s
ch ang
at ing</w>
ay s</w>
ver y</w>
sa id</w>
an s</w>
at er</w>
in v
v es</w>
p ur
) ,</w>
ation .</w>
o f
ag ain
S o</w>
ex c
ec h
er ,</w>
Y ou</w>
u m</w>
be ing</w>
t ak
is e</w>
n ing</w>
ti ve</w>
ch ar
in t
P resid
er .</w>
f ul</w>
pro c
ec ted</w>
p ow
b ac
en s</w>
v al
ha p
is h</w>
20 1
an t
t ure</w>
lo c
we en</w>
h er</w>
m ake</w>
at es</w>
ev en</w>
sti tu
thr ough</w>
bet ween</w>
tr ans
e w</w>
h ear
dev elop
st e
M in
e qu
d .</w>
oo k</w>
en tr
c ap
wor k</w>
ol d</w>
h ea
d ay</w>
) .</w>
A r
per i
as h
e as
su p
k ed</w>
ep t</w>
ati ve</w>
com pl
ur ing</w>
up on</w>
m any</w>
iti es</w>
v ing</w>
c ould</w>
n um
ec tion</w>
c ur
p er</w>
und er
t ain
o t
om e
pro duc
str uc
P ar
so ci
g l
s ch
sec tion</w>
al s</w>
s c
por t</w>
fir st</w>
v id
Presid ent</w>
em pl
w ay</w>
Th ere</w>
lo w</w>
20 0
se e</w>
M a
again st</w>
m an</w>
ver s
il y</w>
y p
g ood</w>
n ess</w>
m ess
re qu
e ve</w>
L ord
re ad
n ed</w>
j o
g et</w>
t ake</w>
in cl
Al l</w>
res s</w>
wh ere</w>
it .</w>
sel f</w>
b as
u g
u al</w>
tion .</w>
I s
di d</w>
t re
re v
w ar
ic ation</w>
f r
lif e</w>
in de
d ,</w>
them ,</w>
par t
j ect</w>
l ar
shi p</w>
c all
c r
em ent
Min is
d own</w>
g ive</w>
c ar
in d</w>
w ell</w>
it ed</w>
d er</w>
g an
tr u
ex p
f il
j ec
d el
ac t</w>
ther e
ard s</w>
y e</w>
di ffer
ag es</w>
se t</w>
ough t</w>
am ong</w>
Govern ment</w>
s ign
a ve</w>
li c</w>
ation ,</w>
it t
lo g
A d
s ur
ti c</w>
h um
l ea
ed uc
c an
c o
k e
bec ause</w>
p ri
ap pl
giv en</w>
ou t
c ul
c our
st and
di rec
ha m
kno w</w>
e ther</w>
form ation</w>
en s
ub lic</w>
0 0</w>
s m
t a
par t</w>
c or
c as
ac coun
st ar
y ing</w>
w om
Wh en</w>
v ed</w>
l l</w>
do es</w>
ad d
s ol
c la
m ust</w>
g ener
G od
prov id
ever y</w>
th ,</w>
O ur</w>
ig n</w>
uc h</w>
v ari
d r
incl ud
t or</w>
r i</w>
la r</w>
said ,</w>
th or
for m</w>
fol low
s ent</w>
l in
h and
igh t
l ed
s ome
po in
n am
. "</w>
d et
O n
ec on
i m</w>
l im
re m
h ow</w>
en ,</w>
ti es</w>
ang u
l ess</w>
b er
f am
N o
f ore
fi ed</w>
o ffic
. .
d em
il ity</w>
ut e</w>
gre at</w>
them .</w>
ter n
ex t</w>
f t</w>
A s
it y.</w>
r ight</w>
r e</w>
s ay
T o</w>
F or</w>
e w
h ol
is ed</w>
ish ed</w>
g overn
d uring</w>
et s</w>
re s</w>
beli eve</w>
th .</w>
hea v
pl ace</w>
im port
M us
T r
k .</w>
you ,</w>
n at
j ust</w>
o y
pers on
’ s</w>
i p
y a</w>
tion ,</w>
ter s</w>
a ff
an n
St ate</w>
H ind
ay .</w>
I N
o ther
rec e
e ach</w>
lo o
in c
le g
wh ile</w>
or gan
i tion</w>
is m</w>
m ak
resp on
ow n
m a
su l
R es
know led
gr am
A s</w>
i ous</w>
b an
c ha
it ,</w>
n ec
tur n</w>
' t</w>
er ed</w>
er s.</w>
im pl
wor ld</w>
M ar
ord er</w>
p u
su c
no w</w>
B ha
m od
c ent
d en
pl ac
ti f
y ear</w>
t e</w>
s ame</w>
g o</w>
year s</w>
e p</w>
b od
ste m</w>
ment .</w>
ear ch</w>
num ber</w>
ap p
it al</w>
s ha
wh om</w>
call ed</w>
econ om
al ,</w>
b us
R E
bo th</w>
s ed</w>
an y
n or</w>
m en
ch ild
oun d
gu id
o per
m il
t ain</w>
ech no
comm un
b ro
d at
H im
st at
echno log
with out</w>
m it
suc c
at i</w>
is su
t t
cons id
d u
s in
al ity</w>
M u
sh e</w>
p ut</w>
rel ig
h i</w>
et c
N ational</w>
e :</w>
ar m
ment s</w>
su re
p ass
is tr
M ess
know n</w>
Th en</w>
E N
o ci
g h
un c
tion al</w>
i a</w>
pl an
k ,</w>
c ame</w>
h al
cont in
s k
ig h</w>
pers on</w>
h igh
ex t
c ase</w>
se e
ion s</w>
b re
an ci
coun try</w>
w ard</w>
bac k</w>
h a</w>
pow er</w>
p un
th in
s :</w>
r ic
in cre
em s</w>
cri p
p end
th ree</w>
wor l
spec i
l angu
n ame</w>
Sh ri</w>
gr ou
le t</w>
differ ent</w>
D o</w>
D el
i vers
hel p</w>
chang e</w>
e ff
v ir
D ay</w>
F or
or s</w>
in ess</w>
al .</w>
shi p
o ve</w>
l ong</w>
au thor
said :</w>
g row
D e
O n</w>
al e</w>
entr al</w>
w ant</w>
un to</w>
.. .</w>
le ad
w ater</w>
ad v
M an
aw ay</w>
ac tiv
Indi a,</w>
l ed</w>
as k</w>
in di
M y</w>
b en
t ow
: %</w>
hap p
ti s
w ays</w>
m en</w>
S p
s ide</w>
n ational</w>
w ind
m uch</w>
f ile</w>
T hat</w>
it er
b i
tak en</w>
ic es</w>
em p
it y,</w>
as s</w>
e y
d er
oun t</w>
W hat</w>
ed s</w>
f ound</w>
e f</w>
i red</w>
l ev
av ail
id e
s et
O F</w>
i ther</w>
l and</w>
Ac t,</w>
r ul
s ou
ir e</w>
ur al</w>
mar k
In de
im e</w>
me ans</w>
et h</w>
r a</w>
ex am
st ud
can not</w>
si ble</w>
d ra
1 8
an a</w>
pres ent
S I
exc ept</w>
coun tr
Th ese</w>
t od
bec ome</w>
f ri
on d</w>
L o
ain ed</w>
u tion</w>
g oo
ou se</w>
inde ed</w>
develop ment</w>
l ine</w>
go ing</w>
o ff
tr a
er e
prov is
re n</w>
u lar</w>
r igh
est abl
s '</w>
su m
D i
Allah ,</w>
me di
t yp
ne ed</w>
( i
in formation</w>
al th</w>
in st
ci p
fin d</w>
compl et
sy stem</w>
ren t</w>
a th
e e</w>
R e
an ts</w>
s ;</w>
r is
r it
or t</w>
l y,</w>
er v
l at
b ers</w>
b oo
tr ac
th ers</w>
n ever</w>
an other</w>
an ,</w>
l and
el s</w>
tri bu
sub -
i k
ash tr
g e
t al
s )</w>
pol ic
c ro
in stitu
cre ated</w>
D ev
et y</w>
sure ly</w>
ust ri
pro t
R B</w>
import ant</w>
is ,</w>
them sel
j ud
ear th</w>
vari ous</w>
a h
re fer
f ur
tim es</w>
1 0
pro gram
s it
empl oy
m or
th ough</w>
A T
sp ir
an k
with in</w>
read y</w>
be g
N o</w>
il d</w>
A b
p ay
re f
st ate</w>
n er</w>
w it
p ublic</w>
ain ing</w>
A N
s ay</w>
m s</w>
con cer
y s
d oc
you .</w>
pro f
bod y</w>
ul t</w>
b ur
b est</w>
cont ro
P er
pl e</w>
w at
l ast</w>
el ec
re .</w>
f ter</w>
t al</w>
ain s</w>
th y</w>
au gh
d om
pres ent</w>
n or
E v
tur al</w>
re ad</w>
iti c
ol og
no w
w ill
hum an</w>
at eg
N ew</w>
wr it
dis t
c a
id d
wh ol
di t</w>
mo v
es s.</w>
accoun t</w>
s ci
pun ish
on s</w>
con c
wor k
D is
h ist
p s</w>
c al
ent .</w>
Lord ,</w>
iz ed</w>
Indi a.</w>
19 9
le ase</w>
am ount</w>
l ear
I m
ment ,</w>
ure s</w>
p op
A u
e ;</w>
S ch
tow ards</w>
V er
gr ap
a ir
iv ed</w>
re sul
vi ew</w>
peri od</w>
col l
ben ef
em ber</w>
br ing</w>
er s,</w>
l am
ac k</w>
R aj
ta x</w>
d ue</w>
s en
ap pro
f ear</w>
re as
pu bl
qu es
c ent</w>
pr in
Bha v
O ffic
ne w
ti ce</w>
t s.</w>
Mess eng
sm all</w>
con f
A m
knowled ge</w>
f unc
ever ,</w>
ac k
tri b
pro g
pl ay
A n</w>
O p
no v
e -
tr ic
con di
A R
( 1
in f
t ly</w>
oo l</w>
C entral</w>
G r
sti t
par ti
H im</w>
o st
ar t</w>
ac tion</w>
ri v
etc .</w>
bet ter</w>
A p
ham m
G u
in al</w>
i ,</w>
al low
th ings</w>
pol itic
mess age</w>
i ed</w>
fi el
acc ord
pl ay</w>
br ought</w>
s ay,</w>
m ain
W or
is ts</w>
en ed</w>
pro per
b ed</w>
sch em
As s
mis sion</w>
ro r</w>
si ve</w>
la w
Minis ter</w>
enc y</w>
con v
t echnolog
at ,</w>
ass oci
le ft</w>
r y</w>
M o
et ing</w>
en ing</w>
1 .</w>
re ,</w>
l y.</w>
lar ge</w>
r or
B o
at ure</w>
t en</w>
fri end
dis c
h ,</w>
govern ment</w>
ever y
comp an
Wh o</w>
wor d</w>
d est
r ang
On e</w>
ap ati</w>
heav ens</w>
m aj
sel f
ex ist
ati c</w>
comp any</w>
v ill
bus iness</w>
mer ic
e al
en .</w>
En gl
is m
w ell
b ar
man ag
on ,</w>
A meric
g ed</w>
T H
ic k
s id
in come</w>
soci al</w>
S u
a z
re tur
mis sion
pl y</w>
h ere</w>
fi c</w>
d ate</w>
b ir
g ave</w>
C l
S el
ag e.</w>
R ashtr
S ing
ow ever,</w>
h igh</w>
on d
c all</w>
Y our</w>
on .</w>
ful l</w>
P l
m us
enc e.</w>
ea d</w>
cl ear</w>
ren g
G and
S ub
l ist</w>
pro mis
st or
char ac
tif ic
re t
ear ly</w>
end ed</w>
e )</w>
our c
o ,</w>
l iter
par tic
wom en</w>
m ul
an k</w>
d ou
li am
ha b
pr ac
ul ar
beli ever
ad es
in ation</w>
d one</w>
o ever</w>
he ad
thin k</w>
Rashtr apati</w>
coun tri
resp ect</w>
bas ed</w>
avail able</w>
t ook</w>
econom ic</w>
2 .</w>
1 5
al ready</w>
an .</w>
contin u
es s,</w>
ti l</w>
fac e</w>
Th ose</w>
D I
ro w</w>
m ight</w>
R am
sy st
th ou</w>
l itt
vi ous</w>
ev il</w>
r .</w>
er n</w>
em ents</w>
h y
m ed
S ec
provid ed</w>
c ause</w>
f our</w>
i ver
includ ing</w>
st reng
f re
a )</w>
cla use</w>
o t</w>
us ,</w>
enti al</w>
t s,</w>
og n
prov ide</w>
ic k</w>
pos ition</w>
child ren</w>
incre as
i an</w>
pl eas
op en</w>
ha ving</w>
anci al</w>
f ree</w>
res t</w>
sub- section</w>
believ ers</w>
h on
in iti
iz e</w>
m a</w>
mem ber</w>
l os
E R
ab ility</w>
nec ess
e h
se en</w>
anc e.</w>
wh at
val u
us ing</w>
u str
C ol
' %</w>
ti l
indi vid
M os
cer tain
w ea
a ut
con n
p at
B ri
mak ing</w>
val ue</w>
ind ustri
f av
follow ing</w>
C our
i .</w>
re al
w a
P RE
wh ether</w>
ail ed</w>
sup port</w>
enc es</w>
s ever
b or
or ig
ent ly</w>
s ing</w>
ac hi
St at
y :</w>
vir on
to o</w>
whol e</w>
un til</w>
oc cas
P e
re mo
er ing</w>
ure .</w>
proc ess</w>
of f</w>
R ec
f ar</w>
o ol
g en
G ener
eff ec
our ce</w>
s ing
e ed
fe w</w>
wh ose</w>
a b</w>
him ,</w>
ex pres
if ic
Bhav an</w>
S ha
ent ,</w>
for c
p i
me as
t empl
si b
ex pl
o p</w>
ef for
s ite</w>
tern al</w>
R em
k ind
e ase</w>
ti t
0 00</w>
stand ing</w>
sti ll</w>
him .</w>
d ays</w>
st and</w>
SI D
f el
o be
is .</w>
ful .</w>
acc ep
k ind</w>
al ways</w>
tod ay</w>
pur pos
cer tain</w>
ation s.</w>
ing s.</w>
enc e,</w>
sh ow
p ed</w>
l ight</w>
dat a</w>
countr y.</w>
B eng
litt le</w>
bu ild
ffic i
s w
ish n
p ec
fol low</w>
R eg
ag re
es sion
z e</w>
er y</w>
ar ound</w>
poin t</w>
sec ur
y oun
wh ere
ch ed</w>
some thing</w>
ke ep</w>
C ha
de f
s s</w>
O r
es sion</w>
u ro
inv est
hel d</w>
te e</w>
S erv
loo k</w>
ha n</w>
pr is
langu age</w>
Mu hamm
ab ove</w>
fi ve</w>
tra di
p ati
port un
pos ed</w>
n s</w>
Un ivers
C oun
educ ation</w>
t en
p an
p ic
Is lam
min istr
1 ,</w>
S y
comm on</w>
P ol
la w</w>
u k
l et
th ir
lar g
serv ice</w>
politic al</w>
c ir
cre ate</w>
cap ital</w>
anc es</w>
pri v
a i</w>
C O
n et
end ing</w>
cl os
w ard
c am
e !</w>
B ook</w>
bec ame</w>
lo b
ra m</w>
grou p</w>
comp u
H ow</w>
te ach
ol ution</w>
P lease</w>
a k</w>
ri ed</w>
V i
b ook</w>
A t</w>
pro bl
say :</w>
loc al</w>
mat ter</w>
u ment</w>
sh ow</w>
op portun
at ely</w>
e ither</w>
cent ur
po st
od e</w>
er min
an im
s ure</w>
e br
im il
ul ation</w>
er ci
tis h</w>
p en
th s</w>
id es</w>
li on</w>
at or</w>
ast e</w>
al ong</w>
her j
c op
h or
Com mit
ut t
ion ,</w>
Is ra
anc e,</w>
SID EN
on e.</w>
Sh ow</w>
pro b
y our
be h
to tal</w>
r an
S A
form ed</w>
A fter</w>
u ally</w>
is ion</w>
we b
s al
S he</w>
s es</w>
mat er
Pr ime</w>
Con t
1 2
0 .</w>
c y</w>
hal f</w>
ric ul
tic al</w>
pr ay
M ost</w>
TH E</w>
PRE SIDEN
rec ogn
l ab
sp ea
ter ,</w>
ful ly</w>
h ous
s on</w>
ter .</w>
m ain</w>
s or
struc ture</w>
o thers</w>
C re
Q u
p ose</w>
set t
l es</w>
ind ustr
tion s.</w>
p ain
C an
vi ew
h op
iz ation</w>
mem bers</w>
tak ing</w>
inter est</w>
en ess</w>
ion .</w>
jec ts</w>
Bri tish</w>
y et</w>
themsel ves</w>
te gr
pro mo
D es
M e
c over
m ag
n on</w>
bac k
Dev elop
no thing</w>
De part
h at
Par liam
rece ived</w>
n ext</w>
re st
equ al</w>
wr ong
w id
tru th</w>
f ig
fam ily</w>
sever al</w>
en tion</w>
comm it
lo ve</w>
fur ther</w>
I O
U R
know s</w>
on t</w>
typ e</w>
B e
i re
Di rec
fac il
ud d
are a</w>
Indi a
ach ed</w>
oc r
w ent</w>
d own
Ac t</w>
N or
di g
g ri
polic y</w>
pe ti
as ,</w>
sup por
fam il
c ell
L i
fl u
jo in
l ing</w>
r ate</w>
hea d</w>
sel ected</w>
sit u
spec ial</w>
rev eal
l y
certain ly</w>
a il</w>
19 6
wind ow
n er
M on
tr ue</w>
19 8
fore ign</w>
ex peri
um b
f ood</w>
f oo
e ?</w>
F in
poin ted</w>
S ay
God ,</w>
es ted</w>
I C
l ong
bel ong
di ffic
fa ith
cur rent</w>
ac tu
min d</w>
d ay
ent er</w>
B i
w ar</w>
serv ices</w>
ass ess
syst em
f low
E m
se qu
to p</w>
on es</w>
ag ricul
tim e.</w>
pre vious</w>
n ic
al a</w>
add ress</w>
f und
em b
b lo
pro ject</w>
s ?</w>
ation s,</w>
Mus lim
go t</w>
Pr ades
Con stitu
f ut
e m</w>
cri bed</w>
r un
fin ancial</w>
ment al</w>
ati v
s impl
dra w
ci ti
f ru
dou b
S ome</w>
me an
I S
. 201
contro l</w>
k ey</w>
tor y</w>
S a
st ri
ou l
( the</w>
m et
j us
an ti
lev el</w>
to g
succ ess
end s</w>
him self</w>
at a</w>
rel ated</w>
h and</w>
sec ond</w>
h old</w>
Minis try</w>
3 .</w>
r ing</w>
ore ,</w>
sp e
i )</w>
ag ed</w>
k r
h ath</w>
ther ,</w>
su g
I T
pre v
ar ch
wr itt
E uro
Con g
C al
re turn</w>
requ ired</w>
du ce</w>
ac y</w>
refer red</w>
an ted</w>
ord in
wor ds</w>
ut y</w>
( 2
c ust
hol d
at .</w>
im age</w>
ud e</w>
it ing</w>
maj or</w>
tor s</w>
19 5
peopl e.</w>
1 6
provis ions</w>
D ec
ter n</w>
id enti
ter ed</w>
wor king</w>
pos sible</w>
1 0</w>
Pro ph
ag e,</w>
tr an
et .</w>
l ist
ous ly</w>
grow th</w>
g a
Ac c
b al
ev id
B y</w>
tog ether</w>
is ation</w>
am p
in e
R s.</w>
grap h
S at
p ay</w>
sa ve</w>
form s</w>
com es</w>
lea ve</w>
stit ute</w>
vid ed</w>
et ,</w>
Hind i</w>
ad di
de fin
ou th</w>
det ail
' re</w>
wor ship</w>
ro ss</w>
b ar</w>
sy m
what ever</w>
sign s</w>
pa id</w>
en viron
S up
ans w
dis tric
ar s</w>
h om
det ermin
in es</w>
h ouse</w>
ter m</w>
gr ound</w>
youn g</w>
believ ed</w>
are as</w>
righ te
19 7
ess ing</w>
ch o
A si
ener g
b es
us .</w>
c oo
speci fied</w>
v ol
im um</w>
sin ce</w>
se par
ec t
me th
g od
R ep
tribu tion</w>
v o
high er</w>
star ted</w>
m ind
H er
m oun
19 4
n ation</w>
d ic
W ith</w>
IN DI
hear ts</w>
N A
gre ater</w>
and ,</w>
Th e
w is
us es</w>
E r
appl ication</w>
PRESIDEN T</w>
a h</w>
writt en</w>
P h
qu e</w>
Gener al</w>
establ ished</w>
appl ic
in s</w>
con struc
he alth</w>
R RB</w>
ac qu
0 ,</w>
ra in</w>
bec om
g le</w>
qu ality</w>
1 4
h tt
countri es</w>
program m
s end</w>
n ight</w>
in str
mul ti
ut es</w>
C or
di v
dest ro
for giv
peopl e,</w>
i ble</w>
in tegr
ent al</w>
I s</w>
tur ned</w>
ill ed</w>
inv ol
d ea
L RB</w>
al i
C ould</w>
n ear</w>
m it</w>
ateg or
htt p
M ad
M E
tr av
fiel d</w>
S ab
fol der</w>
vi ol
( a)</w>
(1 )</w>
as h</w>
punish ment</w>
Say :</w>
m y
H e
K now
parti cip
lob al</w>
t y
reg ard
gr ad
e e
at or
li v
p ing</w>
st re
la k
er al</w>
hist or
ob jec
et e</w>
ab ly</w>
ci pl
H ar
) :</w>
ad ministr
d en</w>
complet e</w>
ch ec
E l
cir c
cap ac
nor m
res earch</w>
li m</w>
for th</w>
li ve</w>
sh are</w>
ef ul</w>
con duc
sa f
Hind u</w>
Del hi</w>
t ou
o k
li k
de b
n i
ti ll</w>
St ates</w>
m i
en jo
ear li
t ar
ph ys
produc tion</w>
c ost</w>
j our
Develop ment</w>
re present
Engl ish</w>
impl ement
R el
on ce</w>
ass es
ag ain</w>
disc us
s ac
ement .</w>
R a
R A
2 0</w>
sci enti
sec tor</w>
T a
G re
ure ,</w>
so on</w>
citi z
ap pointed</w>
achi ev
necess ary</w>
es ts</w>
pos s
re p
f er</w>
th ought</w>
a str
Sing h</w>
a ir</w>
id ed</w>
web site</w>
f arm
me eting</w>
um ents</w>
worl d.</w>
2 ,</w>
al i</w>
? "</w>
our s</w>
ure ly</w>
mon ey</w>
cl ose</w>
ro le</w>
fil es</w>
t on
reveal ed</w>
ch ild</w>
B har
Com mission
t ext</w>
l ater</w>
ch i
f ail
un j
un d</w>
Mu k
no t
h ard
Mus lim</w>
b il
wh y</w>
s il
any thing</w>
R O
po t
im p
w w
ch es</w>
j i</w>
it ation</w>
de ath</w>
as .</w>
sing le</w>
il t</w>
1 3
con stitu
consid ered</w>
augh t</w>
s la
g es</w>
gr at
x ed</w>
as ked</w>
s imil
we e
hand s</w>
B ra
tim e,</w>
consid er
S T
m ach
if e</w>
m un
l ess
wr ong</w>
rec ord
r up
Un ion</w>
mak es</w>
inter national</w>
5 .</w>
wor ks</w>
L ist</w>
ing s,</w>
giv es</w>
fre ed
B oo
star t</w>
s qu
vis ion</w>
tion ed</w>
d ar
In formation</w>
ati s
es ;</w>
a ren
allow ed</w>
Inde ed,</w>
p al
of ten</w>
t em
er n
entr e</w>
1 7
K ar
it y
y ed</w>
P re
see k</w>
/ pr
c el
accord ing</w>
F ol
li ving</w>
L et</w>
w el
ic t</w>
abl e.</w>
Sel ect</w>
all ,</w>
ne ed
ma il</w>
iti es.</w>
cons ci
ourc es</w>
c are
lif e.</w>
in .</w>
4 .</w>
ci l</w>
g ard
chang es</w>
relig ious</w>
nat ural</w>
h u
J o
ic i
Allah .</w>
the e</w>
sub ject</w>
In ter
ch ing</w>
y s</w>
com ing</w>
par ts</w>
mit ted</w>
prov ed</w>
In d
t ech
ear th,</w>
ri ver
ef ore,</w>
nat ure</w>
int ell
' .</w>
fac t</w>
n one</w>
T ri
Cour t</w>
th ous
ne ither</w>
wr ite</w>
S uch</w>
Op en</w>
comm and
or t
g et
fa ith</w>
is ing</w>
Univers ity</w>
d ro
ar ,</w>
g er</w>
d on</w>
Depart ment</w>
st s</w>
ha l</w>
Wh ether</w>
t old</w>
di es</w>
es :</w>
he al
er c
f al
worl d
h t
ne t</w>
g ing</w>
ch all
ad em
Pe opl
issu ed</w>
Ex ternal</w>
th re
cur ren
ed ul
v ic
P al
am a</w>
inde pend
do ing</w>
vid e
ar ti
por ts</w>
beh ind</w>
re ally</w>
proper ty</w>
it or
il ,</w>
industr y</w>
cour se</w>
or ity</w>
ill s</w>
S .</w>
O c
activ ities</w>
Inde ed</w>
schem e</w>
on e,</w>
author ity</w>
ver ily</w>
for ce</w>
p rec
tion s,</w>
sou l</w>
incre ase</w>
Ev en</w>
min is
igh t,</w>
1 st</w>
re li
fa ther</w>
ques tion</w>
Can not</w>
u ary</w>
me et</w>
pa ren
H owever,</w>
ha r</w>
per form
ab il
wor ship
t un
pass ed</w>
secur ity</w>
op h
enti re</w>
technolog y</w>
l s</w>
serv ic
re ward</w>
en se</w>
do .</w>
mod ern</w>
God .</w>
resul t</w>
if y</w>
5 ,</w>
Cong ress</w>
op ens</w>
ad op
tre at
un i
dev o
S E
ra v
D iv
tific ate</w>
igh t.</w>
Commit tee</w>
ari es</w>
C hi
ra ise</w>
n .</w>
f ear
pl ant</w>
th ing.</w>
build ing</w>
all y,</w>
an i</w>
le as
dem ocr
t ell</w>
ne eds</w>
h os
n ess
h ome</w>
assess ment</w>
resp ec
tic le</w>
dr in
vis it</w>
ter ror
po int
] ,</w>
fr ic
f em
at e.</w>
su st
ic s</w>
hear t</w>
f all
mess eng
g ar
exam pl
C er
th us</w>
in ,</w>
fir m
c ity</w>
( b
m e.</w>
c are</w>
c y
in ce</w>
si x</w>
. 0
i es.</w>
ati c
wor d
ad ing</w>
P ur
mil lion</w>
purpos es</w>
M al
em ed</w>
peri od
it self</w>
lea d</w>
hist ory</w>
there fore</w>
int ro
w ise</w>
oc c
ed :</w>
year s.</w>
th is,</w>
F il
ffici ent</w>
m os
Muk herj
w ay
id ent</w>
compu ter</w>
ter ms</w>
st u
res .</w>
im medi
d re
man u
D r.</w>
pe ace</w>
li es</w>
acc ess</w>
pay ment</w>
S urely</w>
in nov
ra ised</w>
individ ual</w>
ban k</w>
themsel v
l ic
at s</w>
mark et</w>
al most</w>
s hap
B el
goo ds</w>
develop ed</w>
st ep
F ile</w>
F i
f ound
el ,</w>
S am
stud ents</w>
par ty</w>
p .</w>
k er</w>
eff ect</w>
H ave</w>
sug g
Man ag
m ir
rev el
em er
F r
gener al</w>
A fric
con tr
a ver
sa w</w>
i ally</w>
tran sp
dis p
br an
B ank</w>
6 .</w>
giv ing</w>
J an
Ma har
No t</w>
la un
plac ed</w>
T echnolog
sign ific
person s</w>
ad ,</w>
u n</w>
reg is
follow ed</w>
ob serv
har d</w>
er ve</w>
ent ed</w>
add res
soci ety</w>
mess ages</w>
M em
wind ow</w>
f all</w>
ex ec
M erci
w ish
oc k</w>
str ong</w>
Th us</w>
po e
Messeng er</w>
st ory</w>
ati ves</w>
In tern
tr ade</w>
ur rec
r ap
it or</w>
ac ts</w>
S oci
( of</w>
g lobal</w>
s crip
pow er
S ur
N ow</w>
de pend
institu tions</w>
h und
con ver
lo t</w>
s ource</w>
it a</w>
f ar
: /
il i
D A
it able</w>
relig ion</w>
en em
sib ility</w>
ion al</w>
char ge</w>
. in
effor ts</w>
s ev
do m</w>
d am
cour t</w>
7 .</w>
3 0</w>
w ish</w>
ign ed</w>
B udd
k ept</w>
rece ive</w>
iv er</w>
P ublic</w>
sion s</w>
pre ci
de ed
partic ular
le m</w>
D ef
comm and</w>
Com p
mem ber
goo d
ac ross</w>
us h
s atis
st y
ind ic
Q ur
Un ited</w>
pur pose</w>
n a</w>
at ory</w>
w al
mo ther</w>
t om
un ivers
person al</w>
or ,</w>
inter est
in flu
fer ence</w>
O R
S ection</w>
S ans
p ath</w>
el .</w>
s l
ar rang
knowled g
ht m
gre at
S w
J ud
other .</w>
o ffer
commun ity</w>
S ay,</w>
I I
vill age</w>
di o</w>
R o
A g
le ast</w>
http :/
offic e</w>
Pr an
s cri
m e,</w>
cust om
Ch in
tru th
sh ort</w>
ser ve</w>
ear th
e at</w>
3 ,</w>
Americ a</w>
ist ance</w>
am ,</w>
A k
cr im
. nic
ou s.</w>
th at,</w>
re duc
pro s
f o
ast er</w>
H ouse</w>
ad .</w>
m and
mo di
s even</w>
re pl
cont act</w>
S ci
h owever,</w>
O r</w>
partic ular</w>
benef it</w>
industri al</w>
ep h
Peopl e</w>
t ree</w>
F rom</w>
tr aining</w>
d uty</w>
b it
Mukherj ee</w>
r ural</w>
ha s
ex per
car ried</w>
in ning</w>
inf ra
com e-
sen se</w>
rel ating</w>
energ y</w>
.nic .in
net work</w>
bas is</w>
7 ,</w>
j ur
f oc
Ad d</w>
c le
tu res</w>
er ror</w>
boo ks</w>
priv ate</w>
per f
es tern</w>
Lord .</w>
g ir
Bra h
4 ,</w>
G ur
si ze</w>
we alth</w>
manu fac
j ar
i es,</w>
K r
r ight
is l
ent s.</w>
provid es</w>
E duc
oun c
idd le</w>
fut ure</w>
L eg
Sch em
g res
etc .
S ar
Ar e</w>
. htm
anc ed</w>
con nec
Parliam ent</w>
app ear
P o
out side</w>
pos i
J un
under stand</w>
t a</w>
Ac coun
8 ,</w>
leg al</w>
ther .</w>
es pec
ens ure</w>
Gand hi</w>
5 0</w>
p e</w>
ac tive</w>
t ask</w>
H igh</w>
coo per
ed ;</w>
Wh y</w>
wh oever</w>
tu re,</w>
U N
manag ement</w>
im ag
M is
re leas
har m
1 1
ic ul
b ol
asses see</w>
Pran ab</w>
rem ain</w>
ent er
ap pe
cor rec
contin ue</w>
Pr in
Chi ef</w>
( in</w>
cre dit</w>
for ward</w>
sub st
ha v
pr im
i b
Wh ere</w>
S outh</w>
ec h</w>
capac ity</w>
Coun cil</w>
ph il
in ed</w>
The ir</w>
g am
0 0
tak es</w>
sp read</w>
con sum
Sans kr
k ar</w>
blo od</w>
pa red</w>
( to</w>
de pos
prac tic
ar y,</w>
8 .</w>
de eds</w>
st ra
v er</w>
P an
& amp
h us
b est
w ro
cl us
t i</w>
bi g</w>
loc k</w>
s on
espec ially</w>
au ti
t y.</w>
guid ance</w>
freed om</w>
s ign</w>
jud g
h o
Er ror</w>
prob lem</w>
ol u
i res</w>
om b
wit ness</w>
there in</w>
st .</w>
bl ess
enc our
ru n</w>
gu ide</w>
mov ement</w>
cel ebr
wor k.</w>
play ed</w>
idd en</w>
n ers</w>
s earch</w>
prog ress</w>
acc ept</w>
L e
O N</w>
Gand hi
o .</w>
" .</w>
sch ool</w>
U se</w>
s cre
es tiv
d ay.</w>
come- tax</w>
p il
am m
D uring</w>
r on
dec ided</w>
cl ass</w>
T O</w>
L E
and s</w>
d ri
ic ally</w>
bu ilt</w>
res ,</w>
actu ally</w>
Ar ab
re al</w>
C H
S e
is tic</w>
D E
fe el</w>
re member</w>
al s,</w>
provid ing</w>
Rep ublic</w>
pre pared</w>
mon ths</w>
bes ides</w>
tu re.</w>
t oo
al s.</w>
la y
includ e</w>
Constitu tion</w>
In stitute</w>
c lo
es tim
de fa
olog ical</w>
so f
sch ool
M A
requ ire
orig inal</w>
ca used</w>
hap s</w>
sec re
probl ems</w>
m ut
templ e</w>
fer red</w>
occas ion</w>
f lo
invest ment</w>
b ul
1 5</w>
thir d</w>
th en
func tion</w>
ar a</w>
C op
j ected</w>
d ay,</w>
re ach</w>
phys ical</w>
N ame</w>
19 3
V al
intro duc
be ar</w>
mer cy</w>
iv es</w>
man if
establ ish
6 ,</w>
reas on</w>
P at
Ad d
1 2</w>
" %</w>
trans fer</w>
sel ves</w>
f y</w>
direc t</w>
pro duce</w>
T ru
f ast</w>
soci et
an al
ke ep
cor por
spir it
T ur
po or</w>
ad d</w>
v e
mat ters</w>
b an</w>
window )</w>
ro l
becom es</w>
r ich</w>
be y
h an
AT IO
Her ea
o graph
h ur
wom an</w>
Muslim s</w>
Lo !</w>
believer s.</w>
Intern ational</w>
respon d
n ,</w>
( External</w>
A gr
Mos es</w>
B as
low er</w>
ab or
us er</w>
riv er</w>
sup pl
ey es</w>
promis e</w>
ap er</w>
C ur
pro ve</w>
dis eas
as c
ch ,</w>
trans l
pl us</w>
ing :</w>
ver se</w>
bo ard</w>
be ,</w>
Ch and
Muhamm ad
S ave</w>
P ak
ing u
happ y</w>
K ash
C har
un less</w>
them ;</w>
L a
(b )</w>
n ar
Sec ret
h .</w>
en sive</w>
ur ation</w>
s anc
publ ished</w>
Tr ans
re ached</w>
C ategor
writ ing</w>
sti c
inst all
simil ar</w>
rel ev
publ ic
st ,</w>
es )</w>
fi f
ta x
P har
su per
oul d
w ide</w>
serv er</w>
re fl
fir m</w>
d educ
c ut</w>
cl ass
Prades h</w>
t able</w>
mar k</w>
A .</w>
t our
er ror
belong s</w>
t op
fr ont</w>
Sp ec
com b
diffic ult</w>
F ir
G ang
mo ve</w>
INDI A</w>
n al</w>
Gu jar
to ge
s em
f ight</w>
Wh ile</w>
( O</w>
provis ion</w>
beg an</w>
en ough</w>
program me</w>
oper ation</w>
is e.</w>
th ough
n ation
it ary</w>
issu e</w>
cul tural</w>
R am</w>
los s</w>
for b
m al
Bo ard</w>
condi tions</w>
an t.</w>
a o
m .</w>
Sp ea
under stand
S H
spea k</w>
appl y</w>
cl es</w>
d e</w>
speci fic</w>
respon sible</w>
ang e</w>
B an
W est</w>
N ov
O f</w>
Lord !</w>
ement ,</w>
d augh
re port</w>
la y</w>
E ast</w>
vide o</w>
boo k
st one</w>
sec tor
sch ol
ne l</w>
righ ts</w>
proc ess
(2 )</w>
D ep
cre d
W e
at ed.</w>
exam ple</w>
ex change</w>
u red</w>
ing ly</w>
) ;</w>
im prov
distric t</w>
A L
pr ice</w>
end ar</w>
bey ond</w>
Muhamm ad</w>
ism .</w>
ti g
year .</w>
hop e</w>
moun tain
al o
on y</w>
igh ts</w>
anci ent</w>
N et
mater ial</w>
l ost</w>
Him .</w>
tr ust</w>
fel t</w>
e x</w>
T od
opportun ity</w>
de part
tain ed</w>
sp ace</w>
F ailed</w>
stud y</w>
at e,</w>
T am
ent y</w>
del iver
. '</w>
m om
Ap pl
ra ther</w>
r id
self .</w>
Gr ou
n ess,</w>
tu al</w>
get ting</w>
K al
qu ar
S al
th en,</w>
accep ted</w>
n on
B en
ist an</w>
child ren
P unj
phil os
d on
rul e</w>
qu ite</w>
qu al
probl em
p ast</w>
exist ing</w>
p age</w>
9 .</w>
ri f
{ 0
pop ulation</w>
op in
eas y</w>
M any</w>
su ffer
c ra
year s,</w>
increas ed</w>
gri ev
cla im
i or</w>
M r.</w>
ow ed</w>
aw are</w>
individ u
fir e</w>
cha sti
c at
Phar ao
g one</w>
tr a</w>
il y,</w>
her e.</w>
w ay.</w>
wro te</w>
sh e
new s</w>
a red</w>
or i
b ra
G ard
gu lar</w>
elec tr
val id</w>
p ur</w>
Isra el</w>
t ro
exc ell
dem and</w>
s e,</w>
et t
c entral</w>
gu ar
g ets</w>
B al
sh own</w>
d ru
concer ning</w>
ra di
ed ic
as k
E S</w>
let ter</w>
us ually</w>
t el
h ood</w>
y ?</w>
H ous
lead ers</w>
n ess.</w>
ex erc
ic ro
cl im
' ll</w>
U p
C o
is ted</w>
oc cur
l u
Ab ra
av o
M od
(i )</w>
O b
Del hi
so ,</w>
A y
t ed.</w>
proc ed
ef ul
d y
tw are</w>
str ug
de al
con st
pur su
man ner</w>
experi ence</w>
lo v
charac ter
en ci
earli er</w>
ar i</w>
reg ul
pre h
ep t
c o</w>
Categor y:</w>
(i i)</w>
s un
chall eng
R ev
tif ication</w>
pi ec
hi b
c ast
mar ri
end er</w>
coll ec
( 3
spir it</w>
w ife</w>
present ed</w>
m uk
] .</w>
Res urrec
centur y</w>
s ound</w>
g od</w>
en abl
agricul tural</w>
bas ic</w>
Acc ord
Cor por
norm al</w>
Beng al</w>
pe ac
man ,</w>
go es</w>
effec tive</w>
tr ust
f are</w>
di d
ou t.</w>
lif e,</w>
en h
dec ision</w>
trib ute</w>
h ear</w>
U tt
Kr ishn
pos t</w>
e es</w>
condi tion</w>
proc eed
B ar
exp end
re str
Sanskr it</w>
Islam ic</w>
pros per
chec k</w>
lak h</w>
au g
cr ore</w>
M E</w>
h oo
pro jects</w>
e ed</w>
dis believe</w>
as p
C .</w>
lo ad</w>
li ber
prof ession
Wor ld</w>
reg ard</w>
Asi a</w>
c ast</w>
th ings.</w>
M ay</w>
p ul
institu tion</w>
be auti
th es
Technolog y</w>
ap point
thr ough
gu e</w>
prot ec
des ire</w>
cul ture</w>
ad a</w>
it ure</w>
S ign
Nor th</w>
evid ence</w>
mon th</w>
bl e.</w>
ot e</w>
contro l
ad vis
n ical</w>
Serv ice</w>
suppor ted</w>
appro pri
t y,</w>
iti ve</w>
dev el
aw a
ver sion</w>
mon th
l ight
ev il
R ul
ther n</w>
fol d
in s
gener ally</w>
every thing</w>
s "</w>
rem ind
h un
Ch ild
worl d,</w>
inst ead</w>
in sec
sci ence</w>
p as
associ ated</w>
wh er
pur cha
Oc to
ther efore,</w>
por tion</w>
ain t</w>
appro ach</w>
o s</w>
v il
w anted</w>
s le
t ation</w>
olog y</w>
g s</w>
hear d</w>
e di
o red</w>
cre ation</w>
p ha
in struc
reg ion</w>
o ke</w>
Pro vided</w>
Com mission</w>
9 ,</w>
bel ow</w>
ou se
Pro ject</w>
ay a</w>
att le</w>
Ex plan
res h</w>
ff er</w>
pro per</w>
ech an
ang els</w>
and a</w>
ac i
ma x
vi l</w>
tre m
a im
Tri b
i als</w>
res ources</w>
de gre
L oc
ir s</w>
car ry</w>
S crip
Pro c
ti li
remo ve</w>
de ep</w>
cop y</w>
fe el
fig ure</w>
S m
Proph et</w>
f our
bor n</w>
cas es</w>
tri ed</w>
bir th</w>
all .</w>
re comm
ow s</w>
organ iz
ell ,</w>
ism ,</w>
su m</w>
doub t</w>
bus in
I N</w>
no te</w>
por ary</w>
o il</w>
set ting</w>
river s</w>
ar .</w>
so ever</w>
plac es</w>
hund red</w>
On ly</w>
ro c
I D
thous and</w>
pres cribed</w>
ous ness</w>
occ up
di ed</w>
al one</w>
ro ad</w>
Cha ir
regard ing</w>
Ver ily</w>
per s</w>
k en</w>
streng th</w>
produc ed</w>
loo king</w>
Res earch</w>
tain ing</w>
ou d</w>
med ical</w>
or .</w>
mod e</w>
aut om
' ,</w>
us h</w>
t est</w>
circ um
t on</w>
se a</w>
agre ement</w>
Th er
P ow
Americ an</w>
y ;</w>
ro om</w>
relev ant</w>
W ill</w>
Au thor
p on
ide a</w>
for tun
ar ticle</w>
ag e
C ap
B ang
in form
st ates</w>
c utt
in n
med ic
R s</w>
ed ing</w>
bo x</w>
Merci ful.</w>
pro jec
lim ited</w>
d ated</w>
bu ild</w>
pres s</w>
ig r
Sup re
att emp
jour ne
issu es</w>
read ing</w>
Pol ic
pain ful</w>
es tic</w>
ch .</w>
P A
et ings</w>
Commission er</w>
ris ti
rel ation
produc ts</w>
ag es.</w>
m ad
dec is
H y
in sp
continu ed</w>
fi xed</w>
organ is
r ig
T E
particular ly</w>
a us
om in
dis ease</w>
c anc
Supre me</w>
ha d
del i
br ary</w>
Him ,</w>
b ri
al ism</w>
Educ ation</w>
&amp ;</w>
k ing
dist inc
de al</w>
K er
spirit ual</w>
rul es</w>
farm ers</w>
employ ment</w>
m ail
ha m</w>
p it
ch em
An n
no t,</w>
accord ance</w>
D .</w>
f .</w>
E very</w>
dom in
sur ance</w>
hus b
form er</w>
f estiv
doc ument</w>
G oo
nam es</w>
ic ations</w>
Ev olution</w>
tradi tional</w>
pow ers</w>
fam ous</w>
conn ected</w>
Vi ew</w>
ra is
ent s,</w>
t ell
2 5</w>
' m</w>
cont ains</w>
b oun
ac tions</w>
la m</w>
ant s.</w>
M umb
charac ter</w>
al low</w>
f ast
detail s</w>
beg inning</w>
G e
ell ed</w>
AN D</w>
str ateg
instr ument</w>
Ch risti
( C
S ept
rel ations</w>
li p
bro ther</w>
Cre ate</w>
B h
tion :</w>
P .</w>
Euro pe
a x
Wh ich</w>
s er</w>
ap ost
valu es</w>
import ance</w>
ea red</w>
re gular</w>
l e,</w>
A ut
th is.</w>
am b
th at
stat us</w>
la id</w>
su n</w>
l eng
ro m
reas on
wh ite</w>
st ood</w>
li ves</w>
tr uc
pl an</w>
accoun ts</w>
N ag
t an
Cal cutt
Sab ha</w>
sac rif
f ind
ic ial</w>
ic e.</w>
direc tly</w>
scienti fic</w>
b at
Mar ch</w>
ut ing</w>
obe y</w>
loc ated</w>
infra structure</w>
mean ing</w>
S ome
J ew
r ound</w>
per c
M aj
B u
k a</w>
consid er</w>
sh r
rel ation</w>
el y,</w>
add ed</w>
dec la
rec ord</w>
os oever</w>
grou ps</w>
Sch edul
G o
sel v
lo an</w>
wit ness
s ens
V is
lead ing</w>
l e.</w>
dis cipl
di vided</w>
I ts</w>
A L</w>
sh ar
men tioned</w>
diffic ul
Or gan
ph o
sur v
ea m</w>
( c
ea v
at ures</w>
meth od
h r
gr ant</w>
simpl e</w>
1 1</w>
sc ale</w>
o l</w>
al ist</w>
Pro gram
ti d
fr am
e ight</w>
ut ,</w>
philos oph
ant ly</w>
H igh
igh ty</w>
1 00</w>
liter ature</w>
in t</w>
P en
situ ation</w>
run ning</w>
includ es</w>
cer tificate</w>
be fore
ou red</w>
chasti s
w ards</w>
B ab
o bl
devel op</w>
" I</w>
sion .</w>
iti es,</w>
( N
t ol
, "</w>
emb ly</w>
e al</w>
mach in
th ing
system .</w>
conn ection</w>
Offic er</w>
h ost
defa ult</w>
E d
adv ant
su d
str ong
st age</w>
pl ug
it em</w>
No .</w>
“ ”
retur ned</w>
know .</w>
dis believ
den y</w>
de emed</w>
am .</w>
S ol
facil ities</w>
ent h</w>
concer ned</w>
year ,</w>
other ,</w>
cor rup
dis play</w>
them :</w>
cla im</w>
cip al</w>
H el
prog res
iver si
i um</w>
prog ram</w>
S ik
guid ed</w>
war n
ev ent</w>
U r
fol k</w>
larg est</w>
U S</w>
pro pos
B l
off er</w>
f ication</w>
C ar
step s</w>
sp r
por ted</w>
tor ment</w>
ter s.</w>
ship s</w>
programm es</w>
ic ,</w>
C entre</w>
d ead</w>
L ast</w>
you ;</w>
s is
d well
de p
cover ed</w>
re pe
meth od</w>
ac adem
F ore
per haps</w>
po et</w>
India ’s</w>
m echan
dra w</w>
el y.</w>
s am
be half</w>
oun d.</w>
s n
s !</w>
T w
Pro t
“ %</w>
hum an
ur g
lear n</w>
high est</w>
respon sibility</w>
ar y.</w>
S earch</w>
wh om
c ou
con tribution</w>
separ ate</w>
U T
l a</w>
ed ?</w>
b ab
Th ere
m et</w>
ru pe
dev ice</w>
no tice</w>
" O</w>
tribu ted</w>
pres id
k new</w>
N O
ug h
part ner
jus tice</w>
. ,</w>
fac t,</w>
col or</w>
" ,</w>
s e.</w>
e th
Par ad
ful f
ap preci
aff air
st ay</w>
Un der</w>
treat ment</w>
righte ous</w>
gr anted</w>
ow ,</w>
p ass</w>
l er</w>
W ind
exp ected</w>
friend s</w>
pol ice</w>
! "</w>
stat ement</w>
T ag
D o
Agr icul
2 5
chang ed</w>
1 -
fur n
an ab
at trac
t own
b on
sy n
pop ular</w>
man kind
pol y
per man
de l</w>
G o</w>
rang e</w>
ess ential</w>
es ?</w>
eg et
m p
O ther</w>
vir tu
J u
I r
est .</w>
Schem e</w>
u ,</w>
tic s</w>
loc ation</w>
show s</w>
b ad</w>
ass istance</w>
s us
p et
Dec ember</w>
Th ou</w>
la st
d ol
Accord ing</w>
bre ak
A l</w>
immedi ately</w>
at ors</w>
S ri</w>
Afric a</w>
environ ment</w>
un it</w>
in her
ent ered</w>
si x
g n
ay ed</w>
ish ing</w>
ga ther
ther e.</w>
pot ential</w>
an s,</w>
T el
P O
su fficient</w>
nam ed</w>
wish es</w>
sp end</w>
ar ri
Child ren</w>
com peti
N eh
plac e.</w>
m ale</w>
lo ad
it ec
for give</w>
L angu
pati ent</w>
ob ject</w>
Y et</w>
Govern or</w>
min us</w>
i el
y an</w>
si z
educ ational</w>
B omb
M ove</w>
er t</w>
pa th
lin k</w>
li e</w>
es h</w>
cri b
b it</w>
prot ect</w>
ear th.</w>
comm erci
Un able</w>
r ain
circum st
ann ounc
an t,</w>
destro yed</w>
coll ection</w>
19 2
ste p</w>
ap prov
tr act</w>
o x
re comp
ww w
m u
answ er</w>
J os
C ent
conf ig
signific ant</w>
anc y</w>
Jan uary</w>
ter rit
fem ale</w>
b utt
any one</w>
et ed</w>
Tam il</w>
Ind ustri
s ong
F a
r ise</w>
pres ence</w>
Nov ember</w>
ul ate</w>
A ,</w>
w ay,</w>
ep tion</w>
N ar
M at
rec ent</w>
num er
er a</w>
construc tion</w>
no t.</w>
fa ir</w>
des ign
I T</w>
( %</w>
ul p
our .</w>
gr ac
I P
succ ess</w>
vol um
am s</w>
Pro v
muk herj
trans gres
to ol
hous es</w>
h ouse
M S
H ist
jud ge</w>
eng ine
fac es</w>
conf id
activ ity</w>
p ack
G er
re lease</w>
B ec
e k
conv en
B ur
ent ary</w>
as si
.htm l</w>
lik ely</w>
equ ip
then tic
tili z
ti fied</w>
s we
t ex
s pl
b row
ag ing</w>
In come-tax</w>
mukherj ee
mukherjee .nic.in
mukherjee.nic.in /pr
http:/ /pr
http://pr anab
http://pranab mukherjee.nic.in/pr
f low</w>
m iddle</w>
con sul
man .</w>
le y</w>
U s</w>
R ef
N am
ou s,</w>
den ied</w>
W estern</w>
ar ily</w>
sty le</w>
N at
( 4
ext en
ment s.</w>
F ebr
El ec
tal k</w>
se as
k et</w>
enc ed</w>
a id</w>
N e
Ex cell
En ter</w>
( A
con sequ
abl es</w>
in side</w>
ight y,</w>
T e
ter min
opportun ities</w>
forc es</w>
ci vil</w>
abl e,</w>
v a</w>
typ es</w>
s ession</w>
bre ak</w>
D id</w>
ha ,</w>
believer s,</w>
r ying</w>
f ailed</w>
Octo ber</w>
re ach
join ed</w>
S ay</w>
some one</w>
chi ef</w>
am ong
" We</w>
expend iture</w>
em bl
mor ning</w>
om ic</w>
ch os
Wh at
beauti ful</w>
anc ing</w>
orig in
app ear</w>
cont ained</w>
I L
2 4
Mess age</w>
tr ad
c u
includ ed</w>
ci vil
t aste</w>
in ary</w>
dr a</w>
b ase</w>
y )</w>
sc ulp
gu il
col um
br id
gener ation</w>
f und</w>
For giv
Rem ove</w>
des crip
bl ack</w>
obe di
ear n
c ov
beli ef</w>
a di
establ ish</w>
Ta x</w>
v en
c le</w>
v eget
di e</w>
appropri ate</w>
U .</w>
pro str
o ts</w>
lear ning</w>
self ,</w>
ne igh
H ad</w>
grow ing</w>
among st</w>
cal cul
b ig
ul ated</w>
op tion</w>
T empl
T er
under standing</w>
exampl e,</w>
cont ent</w>
U S
r ound
Euro pe</w>
Del ete</w>
C C
6 0</w>
' ve</w>
sup ply</w>
sib il
long er</w>
econom y</w>
tri es</w>
la g</w>
Raj as
hold ing</w>
land ,</w>
gre en</w>
eng aged</w>
dis c</w>
P E
en n
re ward
E ar
tech nical</w>
k ill</w>
Sept ember</w>
Ch ec
pl ease</w>
1 6</w>
regis tered</w>
promo te</w>
isl ative</w>
facil it
Lo k</w>
ra il
or g
d h
up .</w>
par ties</w>
meas ures</w>
con fl
am i</w>
u tive</w>
in ner</w>
fin al</w>
Y og
Manag ement</w>
En able</w>
Isra el
um .</w>
n uc
sou l
S et</w>
prac tice</w>
Sy stem</w>
K ol
es '</w>
id ol
compan ies</w>
Fin ance</w>
tem per
forgiv eness</w>
ban ks</w>
langu ages</w>
j ust
s a</w>
n u
N ep
ro ad
Un to</w>
S i
u til
ne ur
are .</w>
am ental</w>
a i
ou t,</w>
fri end</w>
expres sed</w>
countr y,</w>
st ated</w>
sc en
dis believers</w>
as set</w>
. —
un t
un believers</w>
ad equ
sa ved</w>
istr ation</w>
H ol
id .</w>
Pal est
un its</w>
pay able</w>
in e.</w>
heav en</w>
punish ment.</w>
op ened</w>
ser ver
lin es</w>
en able</w>
b ed
develop ing</w>
all y.</w>
Bel i
ist ant</w>
K ing</w>
D oc
s ays</w>
ign or
dom estic</w>
Sec ur
P res
H ere</w>
D istr
i er</w>
H ome</w>
societ y.</w>
J ap
s ent
ic .</w>
di a
benef its</w>
sev ere</w>
implement ation</w>
igh ting</w>
commit ted</w>
I V
w are</w>
pl at
jo b</w>
bal ance</w>
E ast
p ast
mar ks</w>
comp on
adop ted</w>
sp ac
s ”</w>
in aug
att ention</w>
(i i
tur ing</w>
ha vi
te en</w>
fav our</w>
sk y</w>
heav y</w>
ant s,</w>
tiv ity</w>
re ly</w>
offic ers</w>
obl ig
c over</w>
s ).</w>
ide as</w>
ec ts</w>
addi tional</w>
iv ing</w>
fr on
Ex c
vis ible</w>
uni que</w>
mil itary</w>
refer ence</w>
defin ed</w>
decla red</w>
ill ing</w>
D ra
An y</w>
d ang
cons ist
se ems</w>
Jud g
citiz ens</w>
be ar
P a
A N</w>
ti es.</w>
ca uses</w>
I D</w>
oun ds</w>
mus ic</w>
hab it
Is lam</w>
Th r
(i .</w>
streng th
ent ation</w>
si v
ex ternal</w>
cul tiv
offic ial</w>
Fol der</w>
1 4</w>
rem ained</w>
mer ci
c ot
k s.</w>
iv a</w>
in k</w>
addi tion</w>
draw n</w>
N av
per cent</w>
mem ory</w>
enci es</w>
cooper ation</w>
SA W
D et
ref ers</w>
pray er</w>
B es
tr ying</w>
ha st
p ag
cal endar</w>
pri l</w>
dar k
ail s</w>
C T
deduc tion</w>
bo y</w>
(c )</w>
Commit te
es cap
ter s,</w>
jo in</w>
In v
paren ts</w>
ing ing</w>
av a</w>
ak a</w>
W ise.</w>
sm all
are ,</w>
some times</w>
ordin ary</w>
c entre</w>
ant i</w>
sha d
pres s
al ty</w>
H um
wh osoever</w>
ro g
ass ets</w>
E dit</w>
en ever</w>
St and
tit ude</w>
Des crip
pass word</w>
ext ent</w>
ext ended</w>
pol l
est ing</w>
er ship</w>
div ine</w>
br ings</w>
M ag
ste ad
res ol
. )</w>
ke y
is lat
intell ig
success ful</w>
enti t
inter pre
dri ve</w>
Ad v
th ing,</w>
sof tware</w>
s ons</w>
complet ed</w>
R ight</w>
A h
H am
prin cipl
loo ked</w>
Mahar ashtr
vers es</w>
exist ence</w>
achi eve</w>
on ic</w>
t :</w>
li ved</w>
il s</w>
Ma hat
A f
sub scri
Sci ence</w>
g row</w>
c ard</w>
so .</w>
ind ,</w>
C an</w>
( S
op en
func tion
again .</w>
qu i
num bers</w>
it ;</w>
M .</w>
A pr
” .</w>
tr ou
promis ed</w>
pro ph
im prove</w>
ear s</w>
man kind</w>
land s</w>
1 8</w>
tru th,</w>
t aught</w>
of ,</w>
direc tory</w>
hand ,</w>
S um
Grou p</w>
le ge</w>
expres sion</w>
beli ef
CO N
as ks</w>
Europe an</w>
C D</w>
Bec ause</w>
w on
N ath</w>
Im age</w>
mut ual</w>
effor t</w>
Herea f
wor ked</w>
att ach
sa v
p over
K an
ann ual</w>
produc t</w>
intell ec
arch itec
H T
ro om
be aut
appe al</w>
p aper</w>
g ain</w>
el s,</w>
A tt
opin ion</w>
l est</w>
Def a
mem or
la d</w>
jus tic
friend ly</w>
b ound</w>
R us
f f</w>
conn ect</w>
sel ect</w>
m ed</w>
ail y</w>
A t
wh ic
rem ains</w>
power ful</w>
doc uments</w>
er ation</w>
d edic
prot ection</w>
law s</w>
at eral</w>
M y
tw enty</w>
stand ard</w>
spe ech</w>
it ems</w>
har m</w>
S o,</w>
Jun e</w>
D em
tiv es</w>
administr ation</w>
B a
s at
j in
id s</w>
Krishn a</w>
K um
P ri
hol ds</w>
foc us</w>
des c
cho ose</w>
sh op
in e,</w>
direc tion</w>
differ ence</w>
st op</w>
ed ly</w>
in a</w>
h yp
gu ard</w>
dist ingu
z er
wom en,</w>
cl ud
car ri
Ver ily,</w>
r ac
gard ens</w>
for ward
c ell</w>
Direc tor</w>
perform ance</w>
l ear</w>
other s.</w>
lear n
larg er</w>
grou p
ir y</w>
atic ally</w>
tod ay.</w>
doc um
sh ort
sc al
increas ing</w>
ed )</w>
P u
in ter</w>
3 0
att ac
sec ure</w>
r out
con trac
B us
r u</w>
you th</w>
ser ious</w>
stor age</w>
wh il
N um
op ening</w>
f u
con grat
y iel
syst ems</w>
peti tion
n ur
dec ad
commerci al</w>
200 0</w>
f ell</w>
clos ed</w>
ci ties</w>
aver age</w>
E S
B r
w on</w>
o e</w>
max imum</w>
f ,</w>
Bo th</w>
per mission</w>
mar ked</w>
{0 }</w>
ing ;</w>
em o
com preh
19 0
well .</w>
ton n
m en,</w>
es tig
ar gu
an i
IN G</w>
pleas ure</w>
K h
s ex
t eam</w>
through out</w>
I I</w>
B .</w>
pres ents</w>
e %</w>
ab ad</w>
M ul
liter ary</w>
en try</w>
S er
we ight</w>
ful ,</w>
th is
do ers</w>
Utt ar</w>
201 8</w>
( for</w>
ak sh
F ac
yp e</w>
vari ety</w>
g if
cl ear
af f</w>
invol ved</w>
in fl
determin ed</w>
des cribed</w>
and .</w>
keep ing</w>
L im
P RO
Ma ha
ug ust</w>
1 9</w>
pres sed</w>
disc over
cov en
E ach</w>
an g</w>
2 6
gr ace</w>
at ed,</w>
L ab
Com mun
c row
m igr
Bha g
m ighty</w>
am oun
proc essing</w>
meas ure</w>
f requ
b ow
ap proved</w>
anim als</w>
pre neur
as pec
Budd h
A pril</w>
oo m</w>
fa thers</w>
call s</w>
c ode</w>
ass igned</w>
where in</w>
li fe
k s,</w>
il li
Mahat ma</w>
4 0</w>
(3 )</w>
squ are</w>
em br
Him al
work ers</w>
us eful</w>
prev ent</w>
occas ion,</w>
strug gle</w>
spec ies</w>
rec over
ea fter</w>
um ,</w>
tion ary</w>
res ear
di an</w>
re member
nor th</w>
great est</w>
ship .</w>
me an</w>
En viron
fund s</w>
iversi ties</w>
il ed</w>
ext end</w>
T im
ex port</w>
conduc t</w>
Pak istan</w>
G l
restr ic
hap ter</w>
Fir st</w>
Add ress</w>
scre en</w>
offer ed</w>
tim ate</w>
it es</w>
influ ence</w>
industri es</w>
em in
T ime</w>
th ank
pos si
on e
Goo gle</w>
F O
be havi
Ex change</w>
war m</w>
ou d
mer ely</w>
fe et</w>
ord ers</w>
main ly</w>
er g
ent re
B ir
func tions</w>
Com m
re jected</w>
per form</w>
Cop y</w>
sha res</w>
pl ain
join t</w>
deliver ed</w>
al tern
Corpor ation</w>
tiv ely</w>
plan ts</w>
u .</w>
Inde pend
see king</w>
independ ent</w>
adv ance</w>
V ed
t own</w>
pris on
part ners</w>
chos en</w>
re d
neigh b
er s
e an</w>
say ing</w>
lim it</w>
laun ched</w>
knowledg e.</w>
ex clus
si an</w>
requ est</w>
remo te</w>
j un
cam pa
p tion</w>
S hi
S econ
sp ent</w>
pl oy
o y</w>
introduc ed</w>
stra ight</w>
car rying</w>
associ ate</w>
Polic y</w>
P M</w>
Febr uary</w>
Allah ;</w>
h ours</w>
char ged</w>
Pharao h</w>
g .</w>
S ince</w>
O ut
M ed
K e
A D
2 4</w>
r o</w>
g ame</w>
m ,</w>
it s.</w>
believ ing</w>
Th ough</w>
th an
ter ri
rece ip
other wise</w>
Tw o</w>
y n
x .</w>
M en
tru th.</w>
prim ary</w>
pre par
offic er</w>
m ist
leng th</w>
consider ation</w>
mil k</w>
j ob
stor ies</w>
manif est</w>
lea ves</w>
hel ped</w>
fe ed</w>
“ I</w>
view s</w>
bod y.</w>
tru ly</w>
tou ch</w>
anim al</w>
Spec ial</w>
respec tive</w>
p ip
adv ice</w>
( P
hel p
ed ge</w>
M ake</w>
w oo
p ure</w>
inde ed,</w>
dr am
ag ar</w>
schem es</w>
it ?</w>
develop ment.</w>
cre ating</w>
ment s,</w>
c ru
A R</w>
Offic e</w>
Am ong</w>
ne g
b ound
Calcutt a</w>
sym bol
sion ,</w>
fin e</w>
S ett
Fin ancial</w>
re r</w>
cl early</w>
K .</w>
poe try</w>
medi um</w>
fa ther
e ye</w>
your selves</w>
ab sol
Trib un
sec tions</w>
gre g
ev ol
astr ay</w>
objec tive</w>
r am
im ages</w>
exerc ise</w>
Pro f
Distr ict</w>
Ch ange</w>
( L
high ly</w>
ap art</w>
academ ic</w>
S S
main tain</w>
I R
C E
lab our</w>
acc ur
Apr il,</w>
en ge</w>
a j</w>
Ju ly</w>
tradi tion</w>
s ight</w>
ro ot</w>
relation ship</w>
reg ional</w>
mer c
id ing</w>
ac ted</w>
employ ees</w>
mo ving</w>
ic it
ard ed</w>
vill ages</w>
W ith
mo b
des truc
Sha h</w>
st op
man n
liter at
wa it</w>
h ya</w>
E g
E con
C r
la im
g lad</w>
Ma h
prob ably</w>
il .</w>
fal se
St art</w>
us ion</w>
ser ies</w>
min imum</w>
will ,</w>
poin ts</w>
medi a</w>
dest in
Neh ru</w>
ur ban</w>
tech ni
pe di
ha .</w>
eh ic
countri es.</w>
c ategor
associ ation</w>
as sum
ac t
tid ings</w>
qu ick
maj ority</w>
law ful</w>
har mon
e ous</w>
s ea
dis tribution</w>
Indi ans</w>
8 0
l ec
themselv es.</w>
satis fac
e en</w>
F ire</w>
an other.</w>
sc op
k illed</w>
Gur u</w>
A ff
ut ting</w>
su pre
hear t
cas h</w>
oper ations</w>
need ed</w>
mo del</w>
Punj ab
observ ed</w>
v an
an j
An dh
re ject</w>
g er
2 3
s ought</w>
our ,</w>
m ast
lat est</w>
f illed</w>
m ir</w>
L O
K ov
D ata</w>
Ass embly</w>
v ast</w>
re bel
iz ing</w>
form at</w>
excell ent</w>
el ig
R ail
re mem
k on
gl or
Fore ign</w>
countr y
af ter
wat er.</w>
tur ns</w>
dec re
b ha
B ack
v ar
th or</w>
mor al</w>
la p
exper im
b er.</w>
Accoun t</w>
thin king</w>
th at.</w>
rel y,</w>
pa ir</w>
ation :</w>
5 0
cont ain</w>
Mo hamm
C ust
li qu
hyp oc
gre etings</w>
com for
bor row
Spea king</w>
Cl ick</w>
m ass</w>
B ill</w>
el ines</w>
agre ed</w>
Defa ult</w>
no tic
W ould</w>
priv il
f ab
all s</w>
T ext</w>
tu red</w>
g ol
comm od
V ic
Dis play</w>
aw ay,</w>
E ver
In st
ow ever</w>
mountain s</w>
il ing</w>
el s.</w>
spe ech
pass ing</w>
m id
re d.</w>
Jo h
A P
ti le</w>
in ser
fi es</w>
wor k,</w>
s in</w>
ques tions</w>
lead er</w>
k y</w>
est ,</w>
you ?</w>
R .</w>
mos ph
id ,</w>
ic ate</w>
retur ns</w>
on line</w>
coll abor
R iver</w>
EN T
sid es</w>
respon se</w>
an s.</w>
ha y
aw ay.</w>
C iv
tre as
correc t</w>
A sh
tis su
m ur
au thentic
Offic ial</w>
Mumb ai</w>
streng then</w>
secre t</w>
jur is
hu ge</w>
com e.</w>
al though</w>
N ew
Cer tificate</w>
Boo k
m er</w>
V a
B C</w>
A no
see m</w>
c od
S end</w>
sch edul
prof it</w>
pl ays</w>
l ate</w>
ch an
ay an</w>
al ted</w>
M L</w>
su itable</w>
n early</w>
He alth</w>
1 3</w>
enjo y</w>
D V
stand ards</w>
se ized</w>
avo id</w>
Con ference</w>
sur round
inter nal</w>
W om
sett l
o -
di vid
ar g
un g</w>
k top</w>
believ e.</w>
bel ong</w>
aj a</w>
Serv ices</w>
s ale</w>
resul ts</w>
day s.</w>
b er,</w>
J us
d aily</w>
comp ens
dist ance</w>
M un
entit led</w>
bl e,</w>
believ e!</w>
agricul ture</w>
Ch o
there of</w>
ren d
out put</w>
destro y</w>
ad mon
n ine</w>
ch and
t ;</w>
V id
Forgiv ing,</w>
C )</w>
drin k</w>
ch ron
ac hal</w>
aff ected</w>
Abra ham</w>
integr al</w>
sha red</w>
bless ings</w>
b ind
W el
Gandhi ji</w>
Bhar at</w>
num ber
kind s</w>
best owed</w>
ar m</w>
1 7</w>
land .</w>
M er
el se</w>
el ess</w>
appoint ment</w>
Kar nat
, —</w>
ten ance</w>
lea v
eas ily</w>
w ind</w>
ut ter
pl o
ess or</w>
H ear
E R</w>
resid ent</w>
reduc ed</w>
lear ned</w>
el ements</w>
ath a</w>
ag u
actu al</w>
D O
on om
pop ul
2 7
am et
F ree</w>
sou th</w>
shap e</w>
es h
Sat an</w>
Palest in
cons ists</w>
M O
Andh ra</w>
tre ated</w>
mach ine</w>
inter ests</w>
end eav
m )</w>
del ete</w>
cle an</w>
b y
ATIO N</w>
ul l</w>
pres sion</w>
polic ies</w>
cri tic
b a
S har
res ourc
god s</w>
G ov
Aut om
5 )</w>
st ock</w>
up per</w>
ing )</w>
Hist ory</w>
revel ations</w>
mo on</w>
cer em
Chand ra</w>
or a</w>
insp ired</w>
h idden</w>
cont aining</w>
att ack</w>
ain .</w>
ac tion.</w>
Res erve</w>
pos itive</w>
n ations</w>
Direc tor
play ing</w>
of )</w>
chang ing</w>
Secret ary</w>
Engl ish
templ es</w>
ris k</w>
ric h
As soci
non -
minis ter</w>
h our</w>
d riv
al ized</w>
Explan ation</w>
inaug ur
d ance</w>
ci ple</w>
at mosph
g ra
Ther efore,</w>
In valid</w>
C ul
sust ain
m as
cell s</w>
c li
wee k</w>
un just</w>
to m</w>
recomp ense</w>
ev en
e ffici
cri tical</w>
NA ME
toge ther.</w>
s :%</w>
s ),</w>
Th en,</w>
Eg yp
y m
proced ure</w>
her e,</w>
aw aren
adequ ate</w>
Messeng ers</w>
A ir</w>
remo ved</w>
pr ise</w>
fo rest</w>
do ers.</w>
char ges</w>
I S</w>
A S
feel ing</w>
S av
multi pl
inv estig
f resh</w>
com par
Pl an</w>
A ra
de fe
ard .</w>
al li
sub jec
pho to
is es</w>
ro l</w>
ent ure</w>
Ab out</w>
m el
ell ing</w>
cri be</w>
an a,</w>
a '</w>
P or
ys is</w>
journe y</w>
ic e,</w>
sur face</w>
t ed,</w>
con serv
Bomb ay</w>
we b</w>
viol ence</w>
mo ved</w>
fil m</w>
d ed</w>
b ud
N ad
Ano ther</w>
A )</w>
re duce</w>
tri al</w>
tow ard</w>
rev olu
knowledg e,</w>
fru it</w>
con firm
ation ;</w>
sol u
re mov
famil ies</w>
your selv
P ass
L ond
Chec k</w>
( T
y -
recomm end
p raise</w>
m ay,</w>
it s,</w>
fem al
F ri
A ugust</w>
no tification</w>
ev ents</w>
cap it
bil ateral</w>
un g
en su
aff lic
a im</w>
prof its</w>
l ad
Kash mir</w>
Com pan
Am end
r ati
par liam
es ter
emp has
comm enc
J es
B e</w>
sign ed</w>
organ isation</w>
nuc lear</w>
grap h</w>
ain ,</w>
D ar
v oc
imp act</w>
confid ence</w>
En g
new sp
ca us
appro ach
trav el</w>
dem on
au dio</w>
u res.</w>
self -
marri age</w>
enem y</w>
al lo
ab in
sub mitted</w>
dou ble</w>
O ver
Gujar at</w>
tif y</w>
so ft</w>
serv ants</w>
emp ty</w>
arti cles</w>
app eared</w>
ab und
sp ok
ne gl
ion s.</w>
In f
wea k
ir ing</w>
inc id
wel fare</w>
saf e</w>
n ear
fiel ds</w>
I ra
st ly</w>
Ak bar</w>
Ad ministr
w ast
w all</w>
sac red</w>
pro of
m ing</w>
R en
pl ain</w>
ag ue</w>
x im
complet ely</w>
Be fore</w>
war n</w>
s lo
k er
Gard ens</w>
G O
fru its</w>
conv ey</w>
W ater</w>
P R
Ass istant</w>
mo tion</w>
in j
cro s
Raj ya</w>
sol di
qu ot
if ication</w>
ab s
N ow,</w>
her it
g ains</w>
Pow er</w>
tim es.</w>
sub sequ
inter c
h ide</w>
el eph
C ham
th row
mil li
bran ch</w>
l ying</w>
juris dic
comp et
F und</w>
cour se,</w>
bro ad
M ak
wat er,</w>
m ol
histor ical</w>
e ties</w>
at e
w aste</w>
v ed
Pro duc
http:/ /
found ation</w>
an )</w>
up ,</w>
s '
f ill</w>
et s,</w>
we al
w ives</w>
um p</w>
mob ile</w>
m ass
pre p
n ation.</w>
br inging</w>
M ore</w>
su ffer</w>
st aff</w>
men tion</w>
direc tor
appear s</w>
Wor k</w>
Program me</w>
( B
l ack</w>
jour n
D U
A ir
ti es,</w>
di alo
contr act</w>
commun ication</w>
att ached</w>
T our
S en
Ben ef
vis ited</w>
pa rent</w>
J amm
degre e</w>
Th us,</w>
A M
vo ice</w>
le f
in spir
f ing
W ell,</w>
initi atives</w>
wat er
pleas ed</w>
m icro
b ond
V ishn
S tr
C oo
loo ks</w>
fa ir
d ing</w>
th ro
sec ond
am al
v ehic
show ing</w>
el i
constitu ted</w>
serv ed</w>
p sy
her .</w>
I F
where as</w>
sp or
sign s,</w>
S o
20 0</w>
t end
pris es</w>
establish ment</w>
v ital</w>
am end
fall s</w>
sen si
presid ent
L .</w>
themselv es,</w>
comp as
2 1</w>
under taking</w>
st er
Ram a</w>
On ce</w>
poly the
ag es,</w>
2 )</w>
er ved</w>
af ra
af for
Pro per
Net work</w>
Com pl
or ies</w>
fal se</w>
disp ute</w>
compl ex</w>
comm it</w>
Div ision</w>
wor thy</w>
univers al</w>
fac tor
are as.</w>
ac compan
r ad
en ue</w>
dec or
curren tly</w>
saf ety</w>
hear ing</w>
do es
believ e,</w>
word s,</w>
expl o
sel ection</w>
Hind us</w>
y !</w>
p ite</w>
organ ised</w>
mar g
em porary</w>
del eg
them e</w>
se e,</w>
entre preneur
en s,</w>
B ad
purcha se</w>
piec e</w>
i fied</w>
hi c</w>
fore ver
ar my</w>
M ug
A T</w>
subst anti
W ar
O ris
Im port</w>
in i</w>
Chair man</w>
po ems</w>
m al</w>
every one</w>
bl ind</w>
situ ated</w>
s im
oper ative</w>
on es.</w>
l al</w>
ex trem
recogn ised</w>
hel ps</w>
descrip tion</w>
conc entr
un able</w>
show ed</w>
multi ple</w>
lat ter</w>
Un known</w>
There fore</w>
D ate</w>
g or
g i
b ill</w>
as hi
N E
Beng ali</w>
elec tric
be .</w>
C R
sud den
cor respond
becom ing</w>
200 6</w>
organ ized</w>
Langu age</w>
w ants</w>
u ge</w>
sk in</w>
res ource</w>
re ver
husb and</w>
ge able</w>
et ern
e um</w>
Au str
blo od
Descrip tion:</w>
op pos
list en</w>
et s.</w>
M icro
H ell
part ner</w>
consci ousness</w>
bit r
Num ber</w>
to ,</w>
spe ed</w>
pic ture</w>
f ish</w>
ah ,</w>
V .</w>
Leg islative</w>
Ap p
per formed</w>
ograph y</w>
far mer
em ail</w>
k il
Tr aining</w>
Tag ore</w>
1- 2018</w>
st ation</w>
particip ation</w>
hon our</w>
emb er,</w>
conc e
N ob
Ma hab
un ity</w>
h ost</w>
196 1-2018</w>
pun ish</w>
form .</w>
B ut,</w>
them ?</w>
sub- clause</w>
requ ires</w>
crim in
a ud
tre es</w>
fold ers</w>
cap able</w>
Qur an</w>
J am
retur n
pa th.</w>
n ea
p up
festiv al</w>
al u
abil ities</w>
K ab
petition er</w>
gr an
e tion</w>
des ign</w>
tit le</w>
ari an</w>
Author ity</w>
z ing</w>
releas ed</w>
last ing</w>
cas e,</w>
bro ther
al leg
T ype</w>
(ii i)</w>
repl i
mar ried</w>
Y ou
Mis sion</w>
um in
song s</w>
forb idden</w>
Aff air
ould n</w>
de ep
. %</w>
www .
w estern</w>
s ends</w>
m ay
e tic</w>
Delhi .</w>
ph one</w>
and ed</w>
.nic.in /
tar get</w>
rep ent
re ti
promo tion</w>
ad or
goo d.</w>
butt on</w>
R ad
5 00</w>
period .</w>
del iver</w>
cre at
conf ident</w>
an e</w>
F ur
- .</w>
stit utes</w>
me ant</w>
( Muhammad
principl es</w>
des i
deli very</w>
applic ations</w>
Wh oever</w>
P un
w est</w>
for get</w>
fol der
av ail</w>
Me di
Govern ment.</w>
w as
perf ect</w>
n i</w>
in surance</w>
des ires</w>
aspec ts</w>
al ization</w>
He ad
u d</w>
sh all,</w>
pro of</w>
demon str
charac ters</w>
H on
teach ers</w>
stit ut
ren ch</w>
oper ating</w>
instr um
grad u
comp ared</w>
trans fer
res olution</w>
now .</w>
elig ible</w>
democr atic</w>
challeng es</w>
ban king</w>
M e</w>
s ending</w>
r at
go al</w>
ent ly,</w>
T ake</w>
Stat e.</w>
Gre at</w>
v it
reg istration</w>
pat tern</w>
di ver
P os
J a
pr oud</w>
d )</w>
bur den</w>
N ext</w>
J ag
guid es</w>
emer g
el ected</w>
deed s,</w>
Tod ay</w>
s mo
perman ent</w>
partner ship</w>
o fin
im al</w>
fav our
aw ard</w>
approv al</w>
G az
stre am</w>
se ed</w>
pro posed</w>
bac k.</w>
attemp t</w>
teach er</w>
nar r
chi ef
c av
ab ase</w>
tw el
sector .</w>
ession s</w>
e '</w>
Appl ication</w>
g old</w>
fe atures</w>
F o
C P
200 5</w>
unj ust
no d
it ors</w>
hold ers</w>
ess es</w>
enc es,</w>
Q ur</w>
C am
200 7</w>
2 2
, '</w>
ter ing</w>
president ofin
com e,</w>
trib ut
see ing</w>
presidentofin dia
exten sion</w>
down .</w>
M r</w>
In stitu
Chin a</w>
sp oke</w>
or al</w>
om .</w>
H or
Comp any</w>
li brary</w>
cr is
V ir
Mod i</w>
sti c</w>
so il</w>
p ital</w>
h ind
end .</w>
organ ization</w>
mom ent</w>
Tod ay,</w>
P anc
D ay,</w>
D av
teach ing</w>
im port</w>
dea th,</w>
con tribu
Govern ment,</w>
8 0</w>
sid e.</w>
pur ,</w>
m ere</w>
w ood</w>
sol ution</w>
press -
l ades
educ ation.</w>
I .</w>
Allah ’s</w>
sub mit</w>
stand s</w>
s ort</w>
j a</w>
grow n</w>
dr y</w>
consci ous</w>
announc ed</w>
V ide
se l</w>
goo d,</w>
fund amental</w>
cl assi
n it
awaren ess</w>
T u
ing ?</w>
fac ility</w>
enjo y
encour age</w>
col d</w>
S ard
press- releas
machin ery</w>
in ing</w>
er :</w>
ec ting</w>
clim ate</w>
b all</w>
S imil
N ay,</w>
.htm ?
st ore
re mark
press-releas e-
ens es</w>
e ast</w>
ag o</w>
Prades h,</w>
press-release- detail
philosoph y</w>
cro p</w>
administr ative</w>
ad ul
R ed
L ife</w>
Industri al</w>
Herea fter</w>
prosper ity</w>
itor ing</w>
as su
R et
Gang a</w>
str y</w>
messeng ers</w>
dro p</w>
beaut y</w>
Bang lades
lay er</w>
in put</w>
cle an
presidentofindia .nic.in/
down ,</w>
l ,</w>
chastis ement</w>
M P
there by</w>
sw ear</w>
small er</w>
sett ings</w>
presidentofindia.nic.in/ press-release-detail
heal th
happ ened</w>
comm is
manufac turing</w>
k m</w>
f ish
enc y,</w>
ship ,</w>
heal thy</w>
f it</w>
democr acy</w>
Secur ity</w>
Reg ional</w>
wis e.</w>
he ight</w>
concer n
arm ed</w>
accep t
Ex port</w>
sol ar</w>
se as</w>
I ,</w>
relig ion,</w>
j u
gir l</w>
bo dies</w>
author ities</w>
East ern</w>
t ool</w>
e eds</w>
al ised</w>
acqu ired</w>
R I</w>
Col or</w>
mater i
fel low</w>
ad mit</w>
Inter net</w>
ic ip
concer n</w>
Tru th</w>
Cont rol</w>
over e
nu tri
la h</w>
know ,</w>
in k
in cur
des igned</w>
pres sure</w>
is ition</w>
conc ept</w>
Punj ab</w>
Mem bers</w>
m aster</w>
dedic ated</w>
d ear</w>
commun ic
pe t</w>
ci al</w>
appl ied</w>
accoun t.</w>
supre me</w>
qu anti
fel icit
d s.</w>
chall enge</w>
C ir
wa iting</w>
S ir</w>
st ern</w>
messeng er</w>
j e
igh ted</w>
Ker ala</w>
Ex ec
r yp
mo c
di vision</w>
children .</w>
b att
N or</w>
Brah m
lead ership</w>
identi fied</w>
R ural</w>
N P
y al</w>
di vers
dec e
aj i</w>
ab sor
Em ploy
Ab d
what soever</w>
sugg es
di ag
co -
back ground</w>
H our</w>
H ell</w>
( and</w>
stu dies</w>
sh el
pre gn
innov ation</w>
dec ide</w>
Jamm u</w>
oun d,</w>
deed s.</w>
ac tor</w>
“ ”</w>
r an</w>
reli ef</w>
presidentofindia.nic.in/press-release-detail .htm?
iz on
iv al
her e
accoun t
Soci al</w>
18 9
th ings,</w>
success fully</w>
s ourc
dis believed</w>
de e
c attle</w>
[ the</w>
H a
Ar ticle</w>
Ar ch
tur ning</w>
tr ain
t es
stat e.</w>
ref uge</w>
or nam
coun ter</w>
record ed</w>
in jur
f ighting</w>
ativ ely</w>
C E</w>
sec tors</w>
plug in</w>
int en
ac ting</w>
Hum an</w>
wh enever</w>
pu ts</w>
lev els</w>
k ing.</w>
is e,</w>
install ed</w>
el ection</w>
commit ment</w>
We b</w>
Sel f</w>
) ?</w>
sit ting</w>
respon sibil
ide al</w>
ex tre
educ ation,</w>
depart ment</w>
addres sed</w>
Per son
M iddle</w>
.— For</w>
. .</w>
tom or
our selves</w>
h u</w>
exp ect
bir ds</w>
as a</w>
Yog a</w>
N aren
J .</w>
wor th</w>
tod ay,</w>
reg ular
ordin ate</w>
hos pit
har v
el ement</w>
as tic</w>
school s</w>
per cent
cro ps</w>
Cong res
0 2
z z
whom ever</w>
g as</w>
e ath</w>
Civ il</w>
Bi har</w>
Abra ham
transp ort</w>
guar an
S c
H O
ut ter</w>
sp ring</w>
au di
remind er</w>
conduc ted</w>
au thor</w>
[ to</w>
200 8</w>
l ac
achiev ed</w>
Cho ose</w>
Bus iness</w>
wid th</w>
k ing,</w>
ex ists</w>
again ,</w>
Hel p</w>
Allah )</w>
A v
us ers</w>
sp ort</w>
intellec tual</w>
ateg ory</w>
are a.</w>
aim s</w>
In come</w>
Al though</w>
( from</w>
su b</w>
re view</w>
f rom
K or
Coun c
pro min
fin ance</w>
cro ss</w>
N .</w>
n e</w>
ess ed</w>
def ence</w>
ard ,</w>
rec kon
interest ing</w>
dar k</w>
Cl ose</w>
lo g</w>
des er
beg in</w>
G E</w>
ra ,</w>
per mission
ir rig
eed ing</w>
ab and
Li ke</w>
Li brary</w>
A B
w ear
terror ism</w>
O per
N on</w>
Maharashtr a</w>
F ound
D on</w>
D ay
2 8
pr ay</w>
colum n</w>
W ar</w>
S ud
Jo int</w>
H er</w>
sen ior</w>
require ments</w>
rec ently</w>
mo stly</w>
hypoc rit
eph one</w>
end ra</w>
d row
ation )</w>
M ov
Kol k
F l
off line</w>
2 2</w>
trans ferred</w>
s ear
por ting</w>
lead s</w>
ist ,</w>
Kash mir
Dep uty</w>
v ac
ob tained</w>
l ose</w>
Hy der
Cur rent</w>
cr ick
Sh e
no ted</w>
mat ch</w>
har a</w>
b loc
T ha
E T
method s</w>
Ch ro
stud ent</w>
Messeng er,</w>
“ The</w>
tem porary</w>
cont acts</w>
Jus tice</w>
wel come</w>
pop ular
os is</w>
neg ative</w>
Sch ool</w>
G an
Ara b</w>
st ret
se es</w>
mor n
exp an
en s.</w>
ag ree</w>
Delhi ,</w>
C S
pow er.</w>
mand ap
ist s,</w>
is tic
a p</w>
th a</w>
se emed</w>
p ill
e u
Cont act</w>
wh e
w i
ol d
of .</w>
let ters</w>
guil ty</w>
s low
refer ences</w>
psy ch
m ou
is on</w>
abl ed</w>
V ar
U L
R equ
D ay.</w>
thous ands</w>
re ports</w>
mon e
gr and
fut ure.</w>
does n</w>
de pic
advant age</w>
ul e</w>
thre at
say ing,</w>
prec ed
mor t
jo y</w>
e k</w>
cover ing</w>
c ham
are :</w>
an ch
F und
Elec tr
terri ble</w>
sust en
profession al</w>
bur ning</w>
10 ,</w>
( vi
pr ime</w>
pr e</w>
K ing
the at
star ting</w>
n av
k ar
abin et</w>
D E</w>
pri ority</w>
peopl e!</w>
nov el</w>
es sive</w>
ear ned</w>
do or</w>
daugh ter</w>
arm s</w>
Schedul ed</w>
S of
ad ver
the e,</w>
now ,</w>
foo t
re d,</w>
over ,</w>
extrem ely</w>
chang e.</w>
bro thers</w>
N a
In du
A post
fil m)</w>
depos it</w>
b low
aci fic</w>
( as</w>
wit ch</w>
tim es,</w>
prin ciple</w>
ivers ary</w>
fab ric
D at
Ass essing</w>
hum ili
e ."</w>
Prin cipal</w>
z one</w>
cont ext</w>
ab le
Sub scri
P ost
M S</w>
“ We</w>
volum e</w>
h s</w>
coun t</w>
Pl ug
Lord ;</w>
K am
18 8
ren der</w>
b s</w>
Sm all</w>
Af gh
( G
prin cipal</w>
per .</w>
fig ures</w>
every thing.</w>
e ).</w>
dy nam
cre ative</w>
NAME }</w>
sett led</w>
gr ade</w>
bre ast
Th ir
Pr as
2 3</w>
oc k
independ ence</w>
implement ed</w>
day s,</w>
dam age</w>
P acific</w>
Mahab har
C y
6 )</w>
pl e
const ant</w>
ut ation</w>
op tions</w>
P age</w>
B I</w>
individu als</w>
famil y,</w>
T ool
Par ty</w>
Pak ist
P and
L ic
Jew s</w>
Arab ic</w>
sec tion,</w>
requ ire</w>
prin t</w>
children ,</w>
ap ur
U ser</w>
T ell</w>
T P</w>
us ual</w>
im men
head .</w>
con clus
be hal
al ity.</w>
ab ide</w>
V I
Tribun al</w>
Em p
B est</w>
pha se</w>
perc e
ex ist</w>
C I
plan ning</w>
or ph
law .</w>
environ mental</w>
adv anced</w>
S ang
Reg ul
Naren dra</w>
re form
main tenance</w>
ed !</w>
S ee</w>
Al so</w>
wat ch</w>
pr ices</w>
e fficient</w>
M ighty,</w>
tic ul
main tained</w>
ma p</w>
chan nel</w>
(4 )</w>
proceed ings</w>
grat eful
fr ag
direc ted</w>
S k
trib utes</w>
g rav
follow s</w>
T O
L ea
Cl ear</w>
A I
2 6</w>
schol ar
re presents</w>
re ported</w>
re forms</w>
mater ials</w>
circumst ances</w>
char geable</w>
ch ann
M et
wher ever</w>
re cip
Mohamm ed</w>
J awa
transl ation</w>
cra f
M i
Jos ep
200 2</w>
scop e</w>
coven ant</w>
belong ing</w>
S pe
Rel ated</w>
K han</w>
v ig
nat ure.</w>
b ag
Eng ine
" This</w>
sex ual</w>
practic es</w>
king dom</w>
exam ination</w>
er ate</w>
curren cy</w>
s ]</w>
pil gr
off ers</w>
http:// www.
F ind</w>
i ance</w>
g ent
did n</w>
ad ed</w>
Econ omic</w>
ther e,</w>
th i
pover ty</w>
cl ick</w>
J ust</w>
th us
tain s</w>
ment )</w>
ha ir</w>
govern ance</w>
or s.</w>
M and
H indi
some thing.</w>
regard ed</w>
reas ons</w>
r ates</w>
po em</w>
mann er.</w>
j i
in formed</w>
In iti
2 8</w>
des crib
Chin ese</w>
sp on
command ed</w>
M il
DV D</w>
C ,</w>
y el
wea k</w>
simpl y</w>
s ."</w>
e work</w>
den y?</w>
commun ities</w>
C all</w>
1 15
writ er</w>
vic tory</w>
tu s</w>
schol ars</w>
leg isl
forc ed</w>
er r
H .</w>
st ore</w>
pro mp
ion s,</w>
dig ital</w>
cons ol
chem ical</w>
La w</w>
suffer ing</w>
ser i
pl om
inv al
four th</w>
dea th.</w>
toge ther,</w>
s old</w>
offic ials</w>
hol y</w>
distingu ished</w>
Proph et
As sa
str ing</w>
posi tion.</w>
er ;</w>
b ow</w>
St ar
unt ary</w>
m outh</w>
in come-tax</w>
fac ts</w>
ch ance</w>
b on</w>
Vide o</w>
out standing</w>
me et
ga ther</w>
etc. )</w>
Rem ember</w>
recogn ized</w>
Some thing</w>
si a</w>
o ted</w>
lim it
i a,</w>
deli ber
con fer
bir d</w>
G up
B in
gard en</w>
affair s</w>
a ur
Sat y
F re
v a
possi ble.</w>
manag er</w>
iv e.</w>
ip ur</w>
deal ing</w>
Mug hal</w>
ou ter</w>
mo ther
cour age</w>
c ave</w>
Mad hya</w>
) !</w>
w age</w>
pa ir
hand .</w>
expl ain</w>
discus sion</w>
b le
ag encies</w>
V ol
Tr ade</w>
S te
reg ion.</w>
promo ting</w>
Tr an
Mus a</w>
us ed.</w>
tw ith
trib al</w>
thir ty</w>
retur n.</w>
plac e,</w>
in fin
activ ities.</w>
ac compl
T or
SAW )</w>
w in</w>
un known</w>
t ren
reg ions</w>
jud icial</w>
N an
F lag</w>
wal k</w>
ul a</w>
s h</w>
not es</w>
com posed</w>
anc es.</w>
Leg islat
In nov
Govern ments</w>
F rench</w>
vi a</w>
lim its</w>
know ing</w>
n in
mi x
in sul
de :</w>
d ly</w>
bu y</w>
am in</w>
trac k</w>
on ed</w>
employ ed</w>
Sett ings</w>
Beli ever
A z
to .</w>
ess enti
mark eting</w>
gener ations</w>
enabl ed</w>
dee ply</w>
M ac
Y S</w>
stri ke</w>
sel l</w>
i a.</w>
T ir
Israel i</w>
Budd ha</w>
spok en</w>
roc k</w>
engine ering</w>
d one.</w>
arch ive</w>
od y</w>
fail ure</w>
e at
ben eath</w>
Boo k,</w>
mind ,</w>
fin ally</w>
effec ts</w>
cent res</w>
Rajas than</w>
L aw
” ;</w>
enti rely</w>
a i,</w>
H av
Fil es</w>
tiv e.</w>
s it</w>
democr ac
ain ts</w>
Sh all</w>
{0 }
s on,</w>
p ain</w>
o grap
jurisdic tion</w>
e .
du ties</w>
believ es</w>
um p
n ight,</w>
k ers</w>
inv ited</w>
ev ent
cont ents</w>
bro ken</w>
Sub has</w>
M ay
D ig
wom en.</w>
will .</w>
ul y,</w>
ti s</w>
record s</w>
fif ty</w>
fac tor</w>
end s,</w>
ed itor</w>
dis tur
ag ency</w>
Pu bl
Ph o
Coo per
” ,</w>
sle ep
receip t</w>
our ing</w>
deb t</w>
asp ir
T ham
Pe ace</w>
N ir
I G
D r</w>
Ch an
sustain able</w>
over all</w>
fl ag
f et
call ing</w>
ar rog
ar riv
an ese</w>
S cre
Nob le</w>
Lond on</w>
wis dom</w>
under taken</w>
sc at
run s</w>
pa thy</w>
on es
gather ed</w>
f ic
Pro g
P riv
un iversities</w>
stri ve</w>
h owever</w>
corpor ate</w>
as i</w>
ad m
Ro y</w>
x y</w>
proc ess.</w>
oc ol</w>
centur y.</w>
bu g</w>
Soci ety</w>
on to</w>
mo re.</w>
li ar
ati stic
R ab
L ev
In surance</w>
res erv
facilit ate</w>
char g
A re
y a,</w>
rec ite</w>
g est</w>
S O
wh o,</w>
w er
se x</w>
rail way</w>
lea ving</w>
as king</w>
applic able</w>
acc es
[ of</w>
w av
immedi ate</w>
follow ers</w>
col on
b one</w>
acc used</w>
Op tions</w>
" The</w>
tonn es</w>
l .</w>
friend ship</w>
campa ign</w>
avail able.</w>
at titude</w>
app ell
’ S</w>
witness es</w>
w if
bil lion</w>
What ever</w>
T o
Bi har
t in
shap ed</w>
nam e:</w>
go tt
ay ana</w>
un ion</w>
on ds</w>
Su rely,</w>
Gu id
Ch ang
twith standing</w>
said .</w>
s %</w>
r are</w>
lin ked</w>
dis k</w>
depend s</w>
S ind
Parad ise</w>
to t
sh or
equ ally</w>
en u
en e</w>
dec lar
anc es,</w>
afra id</w>
ust ed</w>
sin s</w>
res sed</w>
ha z
h es
fac ul
exc eed</w>
ex tra</w>
d s,</w>
compan y,</w>
Tur k
Afgh an
well -
men .</w>
config uration</w>
ch equ
bl is
ar ising</w>
W ord</w>
S ah
P ost</w>
Explan ation
th ou
hard ly</w>
gor ith
fil e.</w>
cont emporary</w>
bro ad</w>
Scrip ture</w>
4 5</w>
your self</w>
pr ic
i e</w>
M ic
B ose</w>
righ t.</w>
di c</w>
con vers
S ou
trans action</w>
sub jects</w>
p ion
lin ks</w>
govern ment.</w>
dis played</w>
c os
ar rest
PRESIDEN T
L iter
cro p
a head</w>
ter )</w>
our s.</w>
int ended</w>
c ore</w>
ak h
s ources</w>
rec ited</w>
p ages</w>
driv en</w>
Inv est
0 1
ush ed</w>
righ t,</w>
rem aining</w>
pow er,</w>
langu age.</w>
f ought</w>
exp ect</w>
ar bitr
S im
M other</w>
M or
Exc ept</w>
E V
subscri be</w>
pre t
http://www. presidentofindia.nic.in/press-release-detail.htm?
exc ep
b lock</w>
Engl and</w>
Ac adem
lo !</w>
in form</w>
error .</w>
cer tific
an other,</w>
En erg
B )</w>
mod ern
h ot</w>
app ed</w>
ad ap
Sh iv
Ma il</w>
( p
scienti sts</w>
ob tain</w>
initi ative</w>
go ti
famil y.</w>
estim ated</w>
det ailed</w>
con tribute</w>
Sy n
J ay
lin k
bo l</w>
W r
Col lege</w>
w as,</w>
vic tor
poss ession</w>
pe l</w>
om en
d ust
Sard ar</w>
C ode</w>
Ad di
ne goti
S S</w>
O ut</w>
D ue</w>
univers ity</w>
relig ion.</w>
of ]</w>
att end</w>
T R
S T</w>
Nep al</w>
M an</w>
strug gl
s an
lin e.</w>
la v
it ting</w>
avail ability</w>
mar ry</w>
bless ed</w>
allow s</w>
us e.</w>
pre dic
id ity</w>
f le
ad i</w>
18 5
ul tan
initi ated</w>
head s</w>
fe ature</w>
ev ening</w>
eas ed</w>
bran ches</w>
bo t
al ia</w>
Simil ar
20 19
tou ched</w>
sudden ly</w>
st ayed</w>
st ak
sacrif ice</w>
hom es</w>
K ey
F ood</w>
w and
s ets</w>
r ice</w>
pri or</w>
ph en
happ en</w>
te ach</w>
ob jects</w>
lab or
integr ated</w>
ev alu
L ine</w>
Agricul ture</w>
whic h,</w>
re place</w>
nat ur
my self</w>
diseas es</w>
R av
P et
( F
to x
pat ri
j ection</w>
fi x
develop ment,</w>
Excell ency</w>
he at</w>
grat eful</w>
f ying</w>
es tic
al )</w>
Palestin ian</w>
O ri
201 4</w>
wea p
u res,</w>
rupe es</w>
om et
o tic</w>
decis ions</w>
cho ice</w>
bu g
EN T</w>
wea ther</w>
us e,</w>
sp ite</w>
numer ous</w>
enc es.</w>
confl ict</w>
ad just
Re port</w>
200 1</w>
t asks</w>
righte ous
r as
mi xed</w>
dre am</w>
N one</w>
Minis ters</w>
Ann ual</w>
( E
lev el.</w>
famil i
us u
est y</w>
R om
in spec
improv ing</w>
di men
ag greg
Know led
“ O</w>
it self.</w>
hear ts.</w>
der ived</w>
commit tee</w>
D own
' I</w>
up to</w>
sou ls</w>
sculp ture</w>
an ath</w>
ail ing</w>
In tegr
3 5</w>
sk ill</w>
re new
function ing</w>
enc ryp
electr onic</w>
aff ect</w>
ab ode</w>
Kov ind,</w>
Buddh ist</w>
Al i</w>
ri d</w>
purpos e.</w>
hos pital</w>
her o
f ont</w>
eed ed</w>
Rec e
L ef
sur g
ord er.</w>
ir on</w>
en comp
e ]</w>
U G
No ,</w>
wrong ed</w>
twel ve</w>
too .</w>
s tim
s and
Cha it
ty r
mir ac
W at
I bra
y st
vi ously</w>
s or</w>
fr ame</w>
fac ing</w>
c aste</w>
b attle</w>
ab ol
Sw ami</w>
Par k</w>
O ver</w>
Kum ar</w>
C ro
7 5</w>
though ts</w>
ris ing</w>
re jo
ne y</w>
ment ;</w>
is ha
etc. ,</w>
d u</w>
bl ue</w>
T i
L ank
G ol
3 1</w>
pen sion</w>
occur red</w>
in qu
fil ed</w>
enh ance</w>
Jawa har
Dis able</w>
7 0</w>
tu m</w>
p ac
moun tain</w>
fac tors</w>
el ev
asp ect</w>
Sp ir
spec ify</w>
servic es.</w>
if ying</w>
i ent</w>
fer tiliz
ab ov
P ress</w>
Ma ur
I B
Ever y
Cap ital</w>
2 9
199 9</w>
re ply</w>
pl ant
min utes</w>
inter ested</w>
di verse</w>
Cal endar</w>
th row</w>
sid e,</w>
ro ots</w>
regis ter</w>
reason able</w>
men u</w>
et ary</w>
dark ness</w>
al ities</w>
Sha k
Con n
A wards</w>
s man</w>
mail ing</w>
is )</w>
id es,</w>
fi ed.</w>
citiz en</w>
al isation</w>
S ,</w>
Prov ince</w>
For ce</w>
sh a</w>
gr ound
electric ity</w>
con str
compan y.</w>
K ir
su peri
infra struc
ement s.</w>
de v</w>
L A
0 %</w>
world ly</w>
ud i</w>
tre at</w>
too ,</w>
struc k</w>
speci ally</w>
distric ts</w>
di vis
conc ep
celebr ated</w>
autom atically</w>
T al
Mar k</w>
H A
tion ;</w>
id e.</w>
compreh ensive</w>
bac k,</w>
mark et.</w>
d aw
class es</w>
cent er</w>
Wind ow</w>
We b
God ;</w>
FO R</w>
B ank
tr ain</w>
ref used</w>
ran ath</w>
expl ained</w>
exampl es</w>
equ ity</w>
arri ved</w>
Ac t.</w>
sit es</w>
remem br
pro pag
mem o</w>
ill ,</w>
hr s.</w>
hom e.</w>
felicit ations</w>
compl etion</w>
ath i</w>
al ity,</w>
Wind ows</w>
Serv er</w>
pre ferred</w>
poll ution</w>
pat tern
objec tives</w>
insec ts</w>
incl us
cr y</w>
amal gam
Mal ay
s ...</w>
M B
proper ties</w>
ic on</w>
drin king</w>
d a
con ference</w>
Am bed
w ing</w>
subst ance</w>
gre w</w>
co st
Asi an</w>
7 )</w>
hol d,</w>
M I
E E
Assa m</w>
the ory</w>
lin ed</w>
i o</w>
escap e</w>
ant a</w>
Y es,</w>
W id
P M
B et
v acc
t ap
ke ys</w>
abs ence</w>
R u
G lobal</w>
ut a</w>
se g
rend ered</w>
instr uments</w>
firm ly</w>
ea stern</w>
dis obedi
consum er</w>
bl ind
atmosph ere</w>
L uc
Dem ocr
s ake</w>
er ous</w>
edi c</w>
propos al</w>
pass eng
pain t
or s,</w>
consider able</w>
argu ment</w>
am p</w>
2 7</w>
tit ud
offer ing</w>
ob serve</w>
identi fy</w>
der iv
ac har
Vid y
Un der
Par t</w>
Minis ter,</w>
{ 1
ord ered</w>
it ory</w>
in no
compens ation</w>
F ed
whom soever</w>
lo ans</w>
expres s</w>
T ar
with draw
ra ising</w>
qu es</w>
her ,</w>
faith .</w>
ens uring</w>
emphas is</w>
econom y.</w>
continu es</w>
bl ame</w>
S an
Agricul tural</w>
understand .</w>
say s,</w>
own er</w>
happ iness</w>
employ ee</w>
cust om</w>
bl ed</w>
Wom en</w>
( with</w>
initi al</w>
im ent</w>
Is su
y l
well ,</w>
t )</w>
p ea
improv ement</w>
found ed</w>
form al</w>
faith ful</w>
custom er</w>
Y or
S un
Rul es</w>
to %</w>
system ,</w>
ow ned</w>
mist ak
des ktop</w>
cl ust
NA L</w>
L og
(Muhammad ),</w>
o j
ity ;</w>
i i</w>
comp uting</w>
Panc hay
Loc al</w>
F ar
the tic</w>
o ti
hous ing</w>
brid ge</w>
Joh n</w>
un a</w>
tion )</w>
r hy
el im
coll ected</w>
ad mitted</w>
ab ro
Pl an
Mad r
M eg
Div ine</w>
Ch r
Bes ides</w>
3 5
tr ading</w>
t ab
satis fied</w>
poss ess</w>
mind .</w>
em is
ed y</w>
b order</w>
1 )</w>
wee ks</w>
t ac
iv )</w>
fin ed</w>
cir cul
Thr ough</w>
R ed</w>
Jawahar lal</w>
Environ ment</w>
C hapter</w>
l isted</w>
industr y.</w>
i y
Prin t</w>
M ember</w>
.201 4</w>
nam e.</w>
lo ading</w>
laun ch</w>
happ en
con clud
bod y,</w>
w ild</w>
w ick
territ ory</w>
poe tr
n ight
exec u
ang el
par amet
end ,</w>
ac he</w>
K DE</w>
Him achal</w>
sym p
s ’</w>
l em
confl ic
busin ess.</w>
at ely,</w>
Per sian</w>
' d</w>
" If</w>
gen ous</w>
continu ous</w>
be ing,</w>
as '</w>
are s</w>
t estim
offic es</w>
m ighty,</w>
li br
d ers</w>
conv ic
contribu tions</w>
b and</w>
V ari
M M
ter m
m ust
bot tom</w>
bar ri
anal ysis</w>
B AR
A ward</w>
enc y.</w>
doc tor</w>
cour ts</w>
tool s</w>
res urrec
op tim
mind s</w>
fi re.</w>
et c</w>
e ...</w>
te es</w>
recogn ition</w>
hous e.</w>
him self.</w>
e igh
cr yp
co al</w>
ch e
acc um
V edic</w>
Cer tain
Ay ur
9 0</w>
sugg ested</w>
sol ve</w>
ra w</w>
herit age</w>
author ised</w>
at es,</w>
ab h
Ter rit
T op
N ATIO
under stood</w>
sk ills</w>
ing ly,</w>
h it</w>
des ired</w>
bur n</w>
ac commod
C ity</w>
Associ ation</w>
orig in</w>
ha ply</w>
er ies</w>
crim inal</w>
S il
F ire
rev eal</w>
re present</w>
r on</w>
dest ination</w>
[ in</w>
Parliam entary</w>
F am
war .</w>
foo t</w>
ever .</w>
ea f
allow ance</w>
Lim ited</w>
Josep h</w>
As k</w>
Accoun ts</w>
prep are</w>
d ess</w>
clo th
Y ear</w>
UR L</w>
vol untary</w>
pris ing</w>
plat form</w>
ist s.</w>
do ,</w>
advis ed</w>
T og
" My</w>
tal king</w>
ref er</w>
ill .</w>
W oe</w>
M as
I tal
( or</w>
war ,</w>
rev enue</w>
on es,</w>
identi ty</w>
find s</w>
eng ag
e tr
con dem
compon ent</w>
wor th
person .</w>
norm ally</w>
iti s</w>
differ ences</w>
con qu
c ar</w>
ay ing</w>
ang le</w>
am ing</w>
Vishn u</w>
H al
’ .</w>
r ay</w>
problem s.</w>
pre mi
ograph ical</w>
o res
n d</w>
ish ment</w>
im per
al so.</w>
Vi j
Hind u
technolog ies</w>
pal m</w>
op position</w>
om y</w>
fi re
accur ate</w>
ti ble</w>
sem in
re ality</w>
incur red</w>
hib ition</w>
fil ter</w>
equ ival
dis tributed</w>
d il
control led</w>
adv oc
On line</w>
N ations</w>
HT ML</w>
viol ent</w>
o ath
immen se</w>
g en</w>
a u</w>
L in
Allah ?</w>
ton gu
sec ret
mov ements</w>
construc ted</w>
beg ins</w>
Tr ust</w>
B O
there in,</w>
s ong</w>
fe e</w>
acqu isition</w>
R est
? '</w>
yiel d</w>
sure dly</w>
om ,</w>
no tified</w>
et er
earth ;</w>
dis charge</w>
bur n
allo t
ag o,</w>
S PE
remark able</w>
problem .</w>
milli ons</w>
ib ility</w>
att ended</w>
accompan ied</w>
privil eg
literat ure.</w>
ex emp
IS O</w>
uc k</w>
r in
mag n
cho os
b ing</w>
Spea ker</w>
N S</w>
sha re
servic e.</w>
bac ter
V ice</w>
par al
Independ ence</w>
v ention</w>
strength ening</w>
pre view</w>
equip ment</w>
conv inc
U s
Pro vid
Plug in</w>
s overe
res s
real ize</w>
posi tions</w>
m ic</w>
i p</w>
de ity</w>
d enti
arrang ement</w>
tel ephone</w>
prostr ate</w>
person ,</w>
newsp a
in corpor
end ants</w>
a uc
St re
G am
tr ained</w>
st ro
pl ans</w>
li p</w>
daugh ters</w>
cl ub
as w
an ya</w>
Ira q
D P
B rit
r ub
ol e</w>
elec tions</w>
dru g</w>
bes ide</w>
W ik
Pol ice</w>
D u
Ch at
C anc
A part</w>
ur y</w>
temper ature</w>
sel y</w>
er o</w>
dru gs</w>
con tributed</w>
W ell</w>
No ah</w>
- ,</w>
tion ally</w>
star ts</w>
spea king</w>
ro p
pr ide</w>
ord s</w>
im proved</w>
fac e.</w>
f ly</w>
B row
sum m
over come</w>
ist .</w>
all ed</w>
W al
r d</w>
n ight.</w>
G ive</w>
E mail</w>
Cre dit</w>
) ."</w>
pr on
no ble</w>
hast en</w>
for t</w>
S ize</w>
Know ing.</w>
Ed itor</w>
u ity</w>
star s</w>
m ic
l ess.</w>
it e,</w>
Fi re,</w>
B ring</w>
sp an</w>
rece iving</w>
pro te
o the
l ord</w>
hol der</w>
col our</w>
be ings</w>
K o
recogn ize</w>
oun ce</w>
en vis
em .</w>
ac ity</w>
\ \
Un it</w>
Sof tware</w>
M ir
ow .</w>
l es,</w>
com pos
Stat es.</w>
M ur
sp ar
ques tion
produc ing</w>
phen omen
other s,</w>
nar row</w>
g rain</w>
equ ality</w>
compl ex
col leg
Ph il
Au dio</w>
v ul
s is</w>
pres ident</w>
prac ti
per mitted</w>
fu el</w>
ex ac
Ke ep</w>
st ar</w>
say ing:</w>
on ly.</w>
el ed</w>
dea th
be l</w>
IN G
way s,</w>
ther eafter</w>
re tri
p and
Med ical</w>
Gu ar
For c
Ex am
4 )</w>
scrip t</w>
requ ested</w>
remov al</w>
fac ed</w>
b and
Or ig
3 2</w>
you :</w>
wid ely</w>
ste el</w>
ro le
izon tal</w>
discus sed</w>
d ates</w>
bear ing</w>
as ide</w>
201 3</w>
10 .</w>
whol ly</w>
re vis
r ag
dre w</w>
al gorith
Energ y</w>
terror ist</w>
g lob
g all
emin ent</w>
claim ed</w>
b us</w>
ani el</w>
Ra j</w>
2 9</w>
( a</w>
p a</w>
histor ic</w>
C A
201 1</w>
war ning</w>
tu re
t ag
pro por
om s</w>
o x</w>
month s.</w>
gr as
di plom
destruc tion</w>
anal y
Vi ew
Resurrec tion</w>
Believer s,</w>
( iv)</w>
x i
strateg ic</w>
promin ent</w>
process es</w>
invol v
distinc t</w>
' We</w>
e ),</w>
di am
an anda</w>
I ran
G et</w>
way s.</w>
tour ism</w>
sub jected</w>
le an</w>
equ als</w>
ch ro
aw arded</w>
ativ e.</w>
C D
ic ked</w>
f on
bl ing</w>
ank ar</w>
ag gres
Sing h,</w>
Fri ends,</w>
Fil ter</w>
ul s
tol er
rec ur
rap id</w>
Lef t</w>
Gre en</w>
won der
sou thern</w>
resul ting</w>
it e.</w>
h ell</w>
ent ly.</w>
cra ft</w>
po ets</w>
particip ate</w>
hur t</w>
guid elines</w>
co sts</w>
bl es</w>
before .</w>
absol ute</w>
Bab u</w>
( M
w alls</w>
expan sion</w>
Sign s</w>
Karnat aka</w>
D al
Comm and</w>
Al low
1 %</w>
te l</w>
happ ens</w>
V iv
Indu stry</w>
Compan ies</w>
wis e,</w>
trem end
shi f
iti z
instruc tions</w>
en qu
abil ity.</w>
E D</w>
Do es</w>
DA Y</w>
vi z
unc tion</w>
perf ec
l an
h ang
dat e,</w>
appro xim
Raj a</w>
Presid ent
Com ment</w>
B ag
see ks</w>
h ill</w>
f asc
Stat us</w>
200 9</w>
subsequ ent</w>
p rais
mean ing
lo ves</w>
fram ework</w>
exec utive</w>
div ide</w>
Per haps</w>
K u
201 2</w>
udd in</w>
sm oo
flow ing</w>
devo tion</w>
ab road</w>
U s,</w>
L at
Bh ut
Affair s</w>
ti n</w>
represent ative</w>
period ,</w>
exp enses</w>
des pite</w>
del eted</w>
B re
( I
' The</w>
settl ement</w>
ro b
ren der
pan e</w>
list .</w>
fol d</w>
f ro
el d</w>
before ,</w>
T H</w>
Ex alted</w>
v ot
t emp
pen alty</w>
or ate</w>
n omin
end ant</w>
sa ving</w>
chand ra</w>
big gest</w>
attach ment</w>
T ech
St ud
Scre en</w>
N ever</w>
Mar k
In c
x ,</w>
sym bol</w>
rece iv
prac tical</w>
ol der</w>
govern ments</w>
educ ated</w>
divers ity</w>
class ical</w>
cha in</w>
beh ind
bas is.</w>
N ay
C C</w>
, 000</w>
w ild
plan ned</w>
great ly</w>
ens ity</w>
div or
diseas e.</w>
S ad
L t
200 4</w>
will ing</w>
tic ally</w>
them atic
suffer ed</w>
su it</w>
pi x
id ly</w>
i k</w>
far m</w>
dat abase</w>
Sy st
N ic
5 %</w>
.201 6</w>
(L augh
thou :</w>
soldi ers</w>
rati o</w>
post ed</w>
organiz ations</w>
fa ther,</w>
ann iversary</w>
a :</w>
P ad
L ar
Cont in
B ran
3 )</w>
(Laugh ter)</w>
proper ly</w>
forward ed</w>
find ing</w>
ey ed</w>
dra ft</w>
del ay</w>
cur se</w>
.201 5</w>
y ester
writ ers</w>
us er
pu ted</w>
peti tion</w>
pati ence</w>
min or</w>
encomp ass
b rain</w>
Tour ism</w>
S und
N ature</w>
L I
IO N</w>
H as</w>
18 6
ur ge</w>
thus i
pro sec
medic ine</w>
k id
justic e.</w>
cha e
be ars</w>
acc el
Ur du</w>
T ask</w>
' an</w>
trans mission</w>
succ ess.</w>
reach ing</w>
pr inc
or m
on al</w>
in habit
determin e</w>
cou ple</w>
P AR
C T</w>
spec ific
read s</w>
di al
devo ted</w>
G ood</w>
B I
th -
house hold</w>
cul ture.</w>
ch er</w>
b a</w>
Par ti
n erv
in ev
en thusi
de ad
d ust</w>
all )</w>
al one.</w>
Wor l
S tu
st ored</w>
s at</w>
re form</w>
or ial</w>
los ers.</w>
law ,</w>
e :%</w>
cover s</w>
ast y</w>
L u
y '</w>
ta b</w>
surv ey</w>
on a</w>
nor thern</w>
f ashi
congrat ulate</w>
NA BAR
C abinet</w>
Ac tion</w>
w a</w>
tor .</w>
symp tom
ign ment</w>
en v
draw ing</w>
br ight</w>
al ists</w>
S ac
L aksh
K av
ur a</w>
t est
ill a</w>
idol at
entr usted</w>
emer ging</w>
commun ity.</w>
centur y,</w>
U N</w>
S war
Ge or
un ch</w>
mus ical</w>
im mun
gir ls</w>
f oun
extre me</w>
defa ul
constitu tional</w>
bo di
P ath</w>
F E
B E
town s</w>
t elec
sp o
liv eli
im posed</w>
den i
cre ates</w>
answ er
Wh ite</w>
K ur
trans actions</w>
substanti al</w>
hel ping</w>
c ow</w>
P y
valu able</w>
ro ll</w>
on s,</w>
l ight.</w>
kr ishn
gif t</w>
f at
Y oj
S )</w>
P ay
Fi re.</w>
Addi tional</w>
3 6
revel ation</w>
per ,</w>
e ge</w>
Wor king</w>
Mos es,</w>
20 ,</w>
( D
la ugh
histor y.</w>
h il
deal t</w>
arrang ed</w>
ang er</w>
ag e:</w>
200 3</w>
www .</w>
societ y,</w>
prin ted</w>
n aught</w>
icip al</w>
ear n</w>
dec ree</w>
No thing</w>
18 7
is c
gl ory</w>
de als</w>
cl ude</w>
Manag er</w>
D S</w>
B ul
r ab
poe tic</w>
bus y</w>
bo tt
ap h
Sh ould</w>
S ource</w>
Fo rest</w>
En d</w>
sel ling</w>
rel ative</w>
os h</w>
larg ely</w>
grad ually</w>
en light
e able</w>
benef ici
Wh ere
Ma x
K ey</w>
H ide</w>
Dav id</w>
A j
quick ly</w>
own .</w>
mo tiv
increas es</w>
ill ustr
form ing</w>
B ud
(p )</w>
up grad
shar ing</w>
re ds</w>
inval id</w>
ha st</w>
constitu tion</w>
con su
an a
Utt ar
8 )</w>
real ise</w>
ore .</w>
n ity</w>
el ing</w>
dis pos
d well</w>
coun ter
consist ing</w>
con dol
compet ent</w>
D har
tw ice</w>
resol ve</w>
r ace</w>
produc tive</w>
ound ed</w>
faith ,</w>
fa ul
etern al</w>
commun al</w>
co ast
T able</w>
wor st</w>
view .</w>
t es</w>
swe et</w>
prof ession</w>
og en
le l</w>
dec l
am ed</w>
addres ses</w>
T it
4 -
solu tions</w>
satisfac tion</w>
p p
lat eral</w>
innov ative</w>
inf ec
im peri
h in
corrup tion</w>
comb ination</w>
ch er
c ategory</w>
boo k.</w>
Y usu
Va ishn
Similar ly,</w>
Com pu
Ch enn
Bhav an.</w>
Al so,</w>
( H
will ed,</w>
vill ag
sol id</w>
n om
mo vi
min ut
know eth</w>
ish ed.</w>
him ;</w>
exam in
al ed</w>
W a
Sa id</w>
Mar ch,</w>
Christi an</w>
worship ped</w>
sp ot</w>
se e.</w>
s inc
ob st
lin ing</w>
is tics</w>
forever .</w>
for %</w>
apost le</w>
acc id
T re
PRO DU
E .</w>
Ambed kar</w>
A ar
u tiliz
s' :%</w>
rec all</w>
pre fer
hor se</w>
h ot
exac tly</w>
depos its</w>
cl as
ag ent</w>
Per i
K ann
F ull</w>
1 2.</w>
sug ar</w>
en forc
cri ed</w>
Vi et
C H</w>
tru e.</w>
se eds</w>
se ed
it '</w>
indi genous</w>
ac t.</w>
Hous es</w>
Dep os
mon itoring</w>
me tr
V en
M ob
sc ar
ori ented</w>
or ous</w>
k ne
const antly</w>
c lip
astr ay,</w>
ard s.</w>
ap point</w>
Schedul e</w>
G i
En ter
B er
t ?</w>
serv ant</w>
reward .</w>
add ing</w>
Prades h.</w>
A gre
wor d.</w>
technolog ical</w>
t ast
p y
mov ement.</w>
fall ing</w>
ev olution</w>
con ferred</w>
car bon</w>
W rit
O ft</w>
Ar my</w>
( by</w>
( .</w>
sle ep</w>
sensi tive</w>
oc e
judg ment</w>
an a.</w>
aim ed</w>
Exec utive</w>
under tak
ot al</w>
il a</w>
bir th
Banglades h</w>
sh op</w>
ref ug
pay ing</w>
pa irs</w>
l l
l it
inc enti
if t</w>
e a</w>
consul t
U P
Sci enti
P i
H e,</w>
H ER
tour ist</w>
tell ing</w>
pill ars</w>
li ability</w>
head ed</w>
h )</w>
ash ed</w>
Nad u</w>
Ibra him</w>
H AR
Gup ta</w>
15 ,</w>
sh oo
mechan ism</w>
invest ments</w>
g lo
fin ished</w>
en a</w>
el abor
ac tion,</w>
T .</w>
Sur v
Sel ection</w>
H E
zer o</w>
u ous</w>
in ity</w>
commun ications</w>
att ain</w>
adop t</w>
Pan dit</w>
% .</w>
sud den</w>
su ffici
occ ur</w>
mankind ,</w>
is ol
http :</w>
f ed
di r
S ee
Be ing</w>
&amp ;
the irs</w>
stre et</w>
disp ut
diag no
comm only</w>
Sol om
Sh iva</w>
Proc ed
Ker al
Jap anese</w>
I t
susten ance</w>
row .</w>
pri or
me etings</w>
ind er</w>
enjoy ment</w>
correspond ing</w>
at omic</w>
S om
Rel ig
0 8
tru e,</w>
tiv ely.</w>
m ill
jin n</w>
j ew
dwell ing</w>
cro res</w>
coun cil</w>
Qu es
Det ails</w>
” “</w>
tissu e</w>
sl ight
pro xy</w>
p ,</w>
leg islat
b al</w>
F ive</w>
spl it</w>
siv ely</w>
progres s.</w>
p ut
m ang
learn t</w>
inv oke</w>
Mon ey</w>
Ban ks</w>
( d)</w>
" Our</w>
w ear</w>
ti er</w>
strateg y</w>
squ ared</w>
politic s</w>
mor tal</w>
mat ter.</w>
m ar</w>
g ro
employ e
discus s</w>
cerem on
ca using</w>
Sup port</w>
D urg
( v
( Mos
say ing
s ick</w>
ist ing</w>
gu n</w>
fl at</w>
at es.</w>
) ]</w>
w .
shr ine</w>
publ ication</w>
merci ful.</w>
ex pedi
des ert</w>
conc eal</w>
Beng al.</w>
" And</w>
window s</w>
te a</w>
occur s</w>
load ed</w>
iz es</w>
h ana</w>
gott en</w>
environ ment.</w>
arrang ements</w>
al t</w>
af ores
N R
righte ous.</w>
respond ent</w>
oppos ite</w>
ic a</w>
fav or</w>
exc ess</w>
al ism.</w>
M ount</w>
wis dom
trou ble</w>
tremend ous</w>
ten sion</w>
stak e
represent ed</w>
recommend ations</w>
p utting</w>
ow ing</w>
organ ic</w>
im prison
cour ses</w>
consum ption</w>
W AR
S et
I P</w>
E st
st up
quanti ty</w>
off ence</w>
m ac
dy n
discus sions</w>
Sch ool
Mo di
Min imum</w>
Know er</w>
3 00</w>
tim ately</w>
ti ,</w>
suppor ting</w>
ri c</w>
rebel li
pot enti
parliam entary</w>
n a
manag ed</w>
depend ent</w>
conver ted</w>
clos ely</w>
claim s</w>
S ank
Res ource</w>
NATIO NAL</w>
M ode</w>
Knowled ge</w>
Committe es</w>
C enter</w>
wee k
u ary,</w>
throw n</w>
sis ter</w>
li able</w>
inspir ation</w>
inform ation.</w>
guar di
H and
G op
E qu
Bes ides,</w>
s cap
respon d</w>
l ing
invol ving</w>
im possible</w>
dem ands</w>
de ed</w>
ag ra
accept ance</w>
U K
In ser
Im pl
An j
per s.</w>
langu age,</w>
l es.</w>
iv ely</w>
iv al</w>
foo d.</w>
flow ers</w>
e "</w>
crick et</w>
com ment
col le
ap ar
King dom</w>
" You</w>
the ir
seas on</w>
ro yal</w>
or ation</w>
it ya</w>
T y
An d,</w>
w an</w>
than ks</w>
harm ac
ex ports</w>
ea ,</w>
conserv ation</w>
commenc ement</w>
Stat e,</w>
L ight</w>
sla v
role um</w>
hear t.</w>
er )</w>
believ ed,</w>
Mon othe
Geor ge</w>
C ard</w>
3 1st</w>
( R
y er</w>
p ace</w>
compl aint</w>
cl am
bro ke</w>
ard s,</w>
J our
os o</w>
on ly
n y</w>
k ill
in s.</w>
enem ies</w>
M ang
E X
tr ag
te :</w>
piec es</w>
perform ing</w>
org an</w>
inter face</w>
guar dian</w>
fi l</w>
farm er</w>
circ u
Wik i
Hyder abad</w>
Doc ument</w>
Add res
ved a</w>
recover y</w>
interpre tation</w>
influ enced</w>
forgiv ing</w>
col lege</w>
cl ou
behavi our</w>
Sel ected</w>
S it
Presid ent,</w>
Lev el</w>
L E</w>
v im
tr ig
thre at</w>
sub sid
st ones</w>
rec ru
leg s</w>
introduc tion</w>
hum ble</w>
fl ex
and ing</w>
Fur ther,</w>
En cryp
Cust om</w>
z a</w>
ure ment</w>
tific ial</w>
rev ol
pro spec
op posed</w>
manif est
guid ance,</w>
gen u
architec ture</w>
Pass word</w>
Alla hab
, %</w>
( Allah)</w>
ul timate</w>
ta il</w>
pend ing</w>
ne tic</w>
ic s,</w>
fulf ill
emp ha
decl are</w>
ard ing</w>
P rem
will s</w>
war ner</w>
view ed</w>
t ask
st aff
serv ing</w>
judg ement</w>
i ans</w>
hoo d.</w>
flo or</w>
es !</w>
Ref er
Prog ram</w>
whic h
main taining</w>
join ing</w>
g ur
ex pos
encour aged</w>
effici ency</w>
ch ose</w>
car ved</w>
W ere</w>
Secret ari
S in
D am
um s</w>
stu di
right ly</w>
qu ick</w>
par as
l ets</w>
fall en</w>
c hapter</w>
au dit</w>
ass embly</w>
S af
H ari
G .</w>
work s.</w>
transp ort
real ised</w>
per or</w>
p ig
ot a</w>
mul ti</w>
irrig ation</w>
inst all</w>
inde x</w>
dep end</w>
can di
an y,</w>
Sec tor</w>
Rail way</w>
Hav ing</w>
G NO
AN D
wom en
rul ing</w>
implement ing</w>
evid ent</w>
essenti ally</w>
Mul ti
Con fig
Bang al
rev olution</w>
pro se</w>
pos sib
mis s
fe w
carri es</w>
R ights</w>
Priv ate</w>
Pr ak
P ort</w>
P ath
Mahar aja</w>
J er
Invest ment</w>
H an
1 1.</w>
theat re</w>
she et</w>
produc es</w>
play er</w>
harmon y</w>
gr ound.</w>
facul ty</w>
ex plan
e ag
d ut
countri es,</w>
ax is</w>
at e:</w>
Val ue</w>
Secon d</w>
Proper ties</w>
5 9</w>
' '</w>
technolog y.</w>
sent ence</w>
loc k
ful l
ement s,</w>
cour t.</w>
V E
M ast
L ah
Ad vis
( including</w>
z ed</w>
virtu e</w>
sign ature</w>
represent atives</w>
person nel</w>
cal am
b y,</w>
ad or</w>
Li br
/ %</w>
ut ory</w>
technolog y,</w>
s ar
it y:</w>
g ate</w>
distinc tion</w>
collabor ation</w>
bri ef</w>
a qu
Prot ection</w>
Oris sa</w>
Lab our</w>
K ap
J ac
Har y
vi br
th od
ord ination</w>
on ics</w>
offic e.</w>
eg gs</w>
dis cre
con stitute</w>
cam el</w>
Pras ad</w>
Muslim s.</w>
ter y</w>
ov i
keep s</w>
grou p.</w>
g ross</w>
g ,</w>
fif th</w>
fa il</w>
dat e.</w>
altern ative</w>
L ak
Hol y</w>
ra .</w>
pan el</w>
imag ine</w>
an as</w>
amoun ts</w>
ag rap
Qu ality</w>
M aster</w>
D om
s om
rit u
ement ary</w>
difficul ty</w>
cy cle</w>
ach ing</w>
Himal ay
Bin oy</w>
Au to</w>
sil ver</w>
second ary</w>
revel ations,</w>
interest .</w>
ic ated</w>
coun sel</w>
collec tive</w>
ator ,</w>
achiev ing</w>
[ O</w>
Sol ar</w>
P )</w>
M ain
Lea ve</w>
B Y</w>
pos sibility</w>
per taining</w>
k n
id ation</w>
flow er</w>
f lag</w>
equival ent</w>
ect ed.</w>
care ful</w>
c entr
bab y</w>
apost les</w>
L ad
Cur ren
earli est</w>
def ici
conver t</w>
b am
ass er
ab as
Th ree</w>
Mo han</w>
M oun
Him self</w>
For ward</w>
valu e.</w>
v enture</w>
serv ants.</w>
row s</w>
pro portion</w>
pack age</w>
mar t</w>
mad e.</w>
invol ves</w>
ic als</w>
grow th.</w>
e. f.</w>
dr ama</w>
Th y</w>
S C
Rajas th
P C
str ange</w>
por t.</w>
k illing</w>
fif teen</w>
er i
cerem ony</w>
ass embl
Templ e</w>
S ever
Pre vious</w>
Explanation .—For</w>
sh oul
res erve</w>
men tion
l ight,</w>
id eas
fe eding</w>
clos er</w>
M ore
L al</w>
F lo
D ut
up date</w>
termin al</w>
inf id
fi x</w>
em ail
civil iz
H us
Er ror
B ro
vi ve</w>
tu be</w>
tot ally</w>
sla ugh
pur .</w>
prepar ation</w>
month ly</w>
her self</w>
f ool
cred ited</w>
centur ies</w>
celebr ate</w>
F estiv
Bu ild
Bhar at
Ba had
( all)</w>
secur ities</w>
rhy th
remembr ance</w>
re gre
propos als</w>
prim arily</w>
peac e,</w>
gener ated</w>
g age</w>
emer ged</w>
determin ation</w>
condi tions.</w>
ak ing</w>
ag o.</w>
So on</w>
R un</w>
Him ;</w>
For m
Al ways</w>
us crip
tor ment.</w>
t am
stre ams</w>
sa fe
hand s.</w>
em bar
elim in
dis obe
cot ton</w>
care er</w>
What !</w>
P la
.. ..</w>
pl ann
oc ol
ev il,</w>
er ce</w>
embr ac
ed ness</w>
T est</w>
Prof essor</w>
P il
Mus eum</w>
G ri
G N
A .
um e</w>
sup posed</w>
road s</w>
pe as
e ating</w>
dre am
d uration</w>
d a</w>
boun ty</w>
ativ e,</w>
appear ance</w>
Ger man</w>
thes is</w>
testim ony</w>
sugg est</w>
sh ould
lo d
fortun e</w>
c ity.</w>
break ing</w>
Viv ek
Resurrec tion,</w>
El ection</w>
Chro me</w>
' A
pow ered</w>
os ph
o k</w>
k i</w>
ig no
grateful .</w>
fail ed.</w>
el y
el se
cr iter
c aught</w>
at ely.</w>
Pro f.</w>
No twithstanding</w>
N u
B ,</w>
truth ful
t esting</w>
represent ation</w>
num ber.</w>
met al</w>
T rav
Con figure</w>
Beng al
Amend ment</w>
se ated</w>
rest ore</w>
re jec
pres crib
pl ot</w>
lat er,</w>
ir ,</w>
gener ate</w>
form ,</w>
en orm
decad es</w>
bo ys</w>
ar h</w>
SA YS</w>
L ater</w>
( 5)</w>
ti ed</w>
sol v
j i,</w>
ip p
ad ult</w>
Sik k
Islam ist</w>
H ead</w>
st ages</w>
quar ters</w>
part n
os a</w>
ob vious</w>
mat ur
it ch
id ated</w>
ic it</w>
h is
false hood</w>
f ound.</w>
effec tively</w>
cont ain
be ing.</w>
as suredly</w>
L and</w>
D war
x x
pre mis
manufac ture</w>
inv ite</w>
ex tra
employ er</w>
disp ens
calcul ated</w>
am bi
al am</w>
aggreg ate</w>
Su per
G os
2 5,</w>
. “</w>
“ You</w>
whil e,</w>
scen e</w>
person ality</w>
p us</w>
li ke
it an</w>
ish es</w>
degre es</w>
cl oud
c e
c ad
as sa
T ER
P RA
Innov ation</w>
Hereaf ter.</w>
v al</w>
strength ened</w>
recip i
r y,</w>
produc tivity</w>
po em
mark ets</w>
indic ate</w>
hand ic
ha s,</w>
guid ed.</w>
et te</w>
ch ea
bo x
and er</w>
a -
Y oun
L S</w>
2 nd</w>
techni que</w>
succ eeded</w>
sor cer
recomm ended</w>
present ation</w>
f ra
de par
com modi
D h
p ped</w>
mat ure</w>
less on</w>
griev ous</w>
ex alted</w>
addi tion,</w>
O w
Mess ages</w>
Lic ense</w>
K ath
A ud
201 0</w>
20 20</w>
z o
won der</w>
tradi tions</w>
rul ers</w>
represent ing</w>
pres erve</w>
ou ch
n ation,</w>
kil omet
jud ges</w>
intellig ence</w>
er y,</w>
authentic ation</w>
W ash
Beng al,</w>
Autom atic</w>
vol un
t -
stop ped</w>
reduc tion</w>
merc y.</w>
inhabit ants</w>
fi re,</w>
ear ning</w>
discover ed</w>
An y
w icked</w>
tr aff
traff ic</w>
schedul ed</w>
pres erv
j an</w>
institu tions.</w>
head ,</w>
exc eeding</w>
er s'</w>
eleph ant</w>
consci ous
competi tion</w>
compan ions</w>
Ph ys
Le ague</w>
INDI A
12 ,</w>
1 1,</w>
v ess
transl ated</w>
pr ised</w>
pa pers</w>
ord er,</w>
mone y.</w>
inter net</w>
hund reds</w>
g ain
d ur
comp any
att en
ass ist</w>
Secon d
Sa udi</w>
tu res.</w>
ti ous</w>
sinc ere</w>
sa d</w>
g ov
er ly</w>
ap preh
SPE E
Op en
ver ily,</w>
sof tw
sh ed</w>
ke en</w>
infin ite</w>
ic ity</w>
famili ar</w>
enh anced</w>
Stat es,</w>
S ev
Jap an</w>
Hind ust
Ear th</w>
C o</w>
( _</w>
{1 }</w>
transp aren
stu died</w>
rul ed</w>
m i</w>
it ate</w>
eng age</w>
declar ation</w>
co ol
al iz
ab ha
Sever al</w>
Ret ur
201 5</w>
work s,</w>
pray er,</w>
o ath</w>
justic e,</w>
ful fil</w>
ent ering</w>
W A
H os
D ,</w>
w in
s per
s es,</w>
pol iti
per su
no tific
i ation</w>
g as
for ty</w>
exp iry</w>
cas e.</w>
c in
behal f,</w>
" Do</w>
ra j
percent age</w>
mo re,</w>
ing ]</w>
inaugur ated</w>
gar h</w>
foo d,</w>
ec tive</w>
bac ks</w>
aw ay
W ea
Max imum</w>
Inf ra
D ur
4 0
( s)</w>
tell s</w>
t ar</w>
separ ated</w>
rep ent</w>
punish ment,</w>
program s</w>
of %</w>
j a
inclus ive</w>
ent ing</w>
c ards</w>
S tra
P op
Nat ural</w>
Legislat ure</w>
Gard en</w>
vic tim
pen etr
hy dro
h ell
enc od
clos ing</w>
Scrip t</w>
R ah
Offic ers</w>
Himal ayan</w>
EV E</w>
with ,</w>
u li
there in.</w>
su ffic
sp eed
res h
prot ected</w>
ous ly.</w>
in tu
con fined</w>
author ity.</w>
T RA
" It</w>
s ession
ro se</w>
reach es</w>
r im
pray ers</w>
pic ious</w>
im pres
e er</w>
brow ser</w>
author ,</w>
ator .</w>
achiev ements</w>
K ore
Industri es</w>
* .</w>
(1 ),</w>
tur n
tran si
si di
sh ot</w>
pro file</w>
no de</w>
lo ose</w>
gr ati
ey es.</w>
enjo yed</w>
en ough
ed ."</w>
cris is</w>
aw ak
astr ay.</w>
am ent</w>
C AL
resul ted</w>
me ans
ik h</w>
fav ours</w>
dom ain</w>
disbeliev e,</w>
U l
T om
wrong .</w>
t s
surround ed</w>
sub m
polic y.</w>
gr y</w>
exec ution</w>
et y.</w>
do g</w>
ari a</w>
Par t
L oo
writ ings</w>
w ed
ton gue</w>
ra dio</w>
ord ained</w>
o es</w>
insec t</w>
hel p.</w>
exc eeds</w>
c um
b omb
a er
Surv ey</w>
I '</w>
C el
Ar ti
Allah !</w>
20 .</w>
tro op
p ound</w>
it ted</w>
excell ence</w>
cli ent</w>
b .</w>
ati ,</w>
ari es.</w>
al y
U p</w>
R ag
GNO ME</w>
Col leg
: —</w>
se ats</w>
oc ation</w>
hon our
et y,</w>
comp il
New s</w>
For m</w>
A ware</w>
read er</w>
new ly</w>
mil it
may be</w>
ev al</w>
dis abled</w>
dialo g</w>
b ly</w>
adver tis
Reg istration</w>
India -
I denti
Govern ance</w>
F ont</w>
will s.</w>
under take</w>
transgres sor
progres sive</w>
privil ege</w>
on s.</w>
mat ters.</w>
direc tions</w>
character istic</w>
ar am
abro ad.</w>
Chait anya</w>
1 .
uc k
man age</w>
lea f</w>
inst ance,</w>
em a</w>
di e,</w>
build ings</w>
br illi
In spec
Hereaf ter,</w>
Direc t</w>
to :</w>
min e</w>
int ention</w>
g ained</w>
emo tional</w>
att ained</w>
T ab</w>
Ger many</w>
Ch hat
3 3</w>
thes e,</w>
du ly</w>
cal end
Up date</w>
Univers ity,</w>
Spe ech</w>
Rab ind
" What</w>
st om
sin cer
sector ,</w>
it ely</w>
ing ton</w>
histor y,</w>
gol den</w>
categor ies</w>
Wel fare</w>
Sub ject</w>
Su n</w>
Pr im
K on
G ar
word s.</w>
war m
wa it
ro of</w>
organis ations</w>
or ing</w>
leg islative</w>
dis belief
cor ner</w>
as ero</w>
ari ,</w>
an other
aff ir
R ic
M ut
Con sum
Certain ly</w>
Allah :</w>
w. e.f.</w>
ti al</w>
require ment</w>
la ,</w>
in fer
he ed
hab il
fe ed
depend ing</w>
coll ect</w>
Sy ri
Rev i
Rem ote</w>
J E
B ol
with .</w>
thre w</w>
sh i</w>
servic es,</w>
os e,</w>
occup ied</w>
multi ply</w>
la im</w>
ing ...</w>
direc tor</w>
dic t
depart ments</w>
dep th</w>
custom ers</w>
b ad
ap s</w>
ad es</w>
UR I</w>
8 8
un fortun
st er</w>
reduc ing</w>
mag ic</w>
la z
el a</w>
bo y
Wh enever</w>
L ay
ty pe
t le</w>
st atistic
resourc es.</w>
re port
ough ly</w>
ograp hic</w>
inf ection</w>
fear ,</w>
ex clud
ation ?</w>
Kolk ata</w>
F A
Ex p
Euro p
Ch ild</w>
C at
window .</w>
rem ain
pro hib
mov able</w>
man uscrip
l ess,</w>
dev ices</w>
busin ess
aut onom
U s.</w>
S ovi
Comm on</w>
Apost le</w>
“ And</w>
{ PRODU
tw o,</w>
qu ali
parti al</w>
ox y
ext ensive</w>
con sec
chro mos
amend ment</w>
Yusu f</w>
wher e.</w>
u b</w>
reg ards</w>
pass age</w>
mo bil
mess age.</w>
mag az
l or
hoo d,</w>
f at</w>
are as,</w>
Tr ust
T V</w>
Def ence</w>
wh is
w iv
u pr
sk y,</w>
produc ts.</w>
natur ally</w>
govern ment,</w>
deb ate</w>
al ize</w>
ach i</w>
T A
Punjab i</w>
L ook</w>
D RE
Ac tiv
v el
ter ror</w>
shi ft</w>
mom ent
hear ts,</w>
SH RI</w>
sat ell
preci ous</w>
m ouse</w>
inst ance</w>
V ill
Sp ace</w>
Some times</w>
Person al</w>
I sh
Dig ital</w>
’ ,</w>
tor al</w>
r ank</w>
prin ting</w>
ob struc
industr y,</w>
hypocrit es</w>
ful fil
f ost
ex ha
earth qu
earth ?</w>
dist ant</w>
conven tional</w>
Or d
Indi ra</w>
AN A
s low</w>
regul ations</w>
proof s,</w>
per mit</w>
peopl es</w>
pal ace</w>
jo int
hi ,</w>
fore sts</w>
c om</w>
activ ely</w>
a es
Yor k</w>
V o
Un iversities</w>
Engine ering</w>
4 4
y am</w>
un ited</w>
sol e</w>
refl ect</w>
low ing</w>
lad y</w>
k in
int est
as cribe</w>
Pr ay
M IN
Inser t</w>
G ame</w>
Fam ily</w>
Austr alia</w>
war ned</w>
there of,</w>
sp reading</w>
mid st</w>
mandap a</w>
ill s,</w>
dat a.</w>
cent .</w>
b ond</w>
Su char
Jew ish</w>
II I</w>
til ity</w>
signific ance</w>
sign al</w>
res erved</w>
repli ed,</w>
qual ities</w>
pl ot
manufac tur
lev el,</w>
fru it
f un
enter prise</w>
dis believers.</w>
c ular</w>
busin ess,</w>
bre a
a i.</w>
Youn g</w>
NP S</w>
Con fer
5 th</w>
sion ate</w>
re ac
poin t.</w>
mas sive</w>
hav e,</w>
fac tory</w>
comb ined</w>
cl ari
bud get</w>
Trans fer</w>
Medi a</w>
L ink</w>
D )</w>
Con sid
Amend ment)</w>
vers es,</w>
ush ing</w>
tion ?</w>
th ank</w>
simil ar
revolu tionary</w>
qu ad
pl edge</w>
inter action</w>
inc es</w>
hon oured</w>
experi enced</w>
dis crimin
del ight</w>
bre ast</w>
achiev ement</w>
With out</w>
S M
Pro jects</w>
L DA
w ilt</w>
v es
trans formation</w>
tel ev
suppor ts</w>
superi or</w>
spor ts</w>
retur ning</w>
ore s</w>
nea rest</w>
he b</w>
aus e)</w>
M es
Impl ement
tomor row</w>
star tu
son s,</w>
set ,</w>
s i</w>
re placed</w>
pris on</w>
exp and</w>
di d.</w>
cl oud</w>
at tract</w>
a ;</w>
S impl
R ot
Parliam ent.</w>
sim ultan
res c
por ter</w>
off .</w>
knowled ge
in es,</w>
di al</w>
command s</w>
c ease</w>
c a</w>
bo o</w>
am az
ak ed</w>
ad mir
ab et
R oy
Madr as</w>
C ast
Acc ess</w>
ी )</w>
woo den</w>
um ph
t as
stud ents.</w>
situ ation.</w>
over .</w>
ou tw
defe at</w>
def end</w>
aff air</w>
ad er</w>
ac ious</w>
R ead</w>
Por tu
L et
val le
un ci
struc tures</w>
sovere ign
produc tion.</w>
job s</w>
in tim
ici ans</w>
forb id</w>
f ed</w>
eg g</w>
conver sion</w>
cont ex
ch ur
c on</w>
bind ing</w>
R ang
I sa
u ation</w>
ti gh
se em
s es.</w>
p ious</w>
jud ici
ik a</w>
hear t,</w>
co ordin
arm a</w>
accoun t,</w>
UR L.</w>
K is
I MA
3 6</w>
st al
sett le</w>
ol a</w>
merc y,</w>
los s.</w>
foc used</w>
dynam ic</w>
down load</w>
accep table</w>
Sik h</w>
S A</w>
R T
Boo k.</w>
Benef ic
( ह
wh el
val ley</w>
t ang
pain ting</w>
nat ure,</w>
did ates</w>
compon ents</w>
competi tive</w>
au l</w>
Pl ace</w>
G ora</w>
Ass embl
tu res,</w>
te enth</w>
t um
se at</w>
qu an
proc laim
ind uc
go als</w>
g es
fulf illed</w>
chequ e</w>
c att
b ility</w>
attac ks</w>
ap parent</w>
affor d</w>
aff ection</w>
Y e</w>
V ik
T il
Stand ard</w>
Pe ac
NABAR D</w>
Gre ek</w>
youn ger</w>
tim e
st s,</w>
ra f
poss essed</w>
mon th.</w>
lov e,</w>
ill s.</w>
fa ult</w>
big ger</w>
acces sible</w>
O ff
Muhammad ],</w>
.201 3</w>
host s</w>
fear s</w>
ey es,</w>
experi ences</w>
care fully</w>
ang els,</w>
al ong
V ER
D P</w>
D I</w>
Bl ack</w>
Back ground</w>
AT E</w>
3 rd</w>
u tr
tiv e,</w>
sust ained</w>
sub mission</w>
se en,</w>
s on.</w>
repe ated</w>
l ingu
impl ement</w>
do th</w>
di min
conven i
cha ir
Wor k
T otal</w>
D A</w>
Cour ts</w>
Constitu tion.</w>
Bad r
witness ed</w>
t end</w>
sequ ence</w>
schem e.</w>
public ation,</w>
is ]</w>
indic ated</w>
deriv ative</w>
anc ement</w>
ac id</w>
Th ank</w>
Sovi et</w>
G ul
A w
( The</w>
yel low</w>
ur ged</w>
up s</w>
r ut
projec t.</w>
g et.</w>
comfor t</w>
bre ath
PRE S
M ain</w>
G ir
B or
wor n</w>
super vis
strong er</w>
s y</w>
r il
oper ation.</w>
nam ely</w>
ind ul
ic al,</w>
ensu s</w>
dram atic</w>
direc tion.</w>
are r</w>
ail .</w>
Parad is
P AT
M eh
Com mand
Are a</w>
An g
4 8</w>
sk illed</w>
s /
re pos
mer cy
inser ted</w>
inno cent</w>
in scrip
exclus ively</w>
difficul ties</w>
des cribe</w>
cy cl
cru cial</w>
co- operative</w>
attrac tive</w>
Karnat ak
Isra el,</w>
E at</w>
D F</w>
Con serv
1 "</w>
" On</w>
vis iting</w>
stat e,</w>
st oc
server .</w>
over seas</w>
n ath</w>
lay out</w>
it ment</w>
in s,</w>
high l
e ing</w>
di ,</w>
connec ting</w>
b in</w>
Ph one</w>
P lay</w>
ul ating</w>
oper ational</w>
me at</w>
lo tus</w>
hom e,</w>
h ence</w>
ent y-
enc e
b ass
an ag
al ;</w>
Wh at,</w>
S U
Proph et,</w>
In cre
Bahad ur</w>
B ure
understand ing.</w>
top ic</w>
stri k
qu it</w>
popul ation.</w>
mix ture</w>
log ical</w>
in ste
guaran tee</w>
fru str
for .</w>
enc ing</w>
dec line</w>
consul tation</w>
circ ular</w>
cas es,</w>
best ow</w>
b os
at tribute</w>
Ram ayana</w>
Mob ile</w>
Integr ated</w>
I V</w>
E ff
C ome</w>
B od
which ever</w>
re plac
prec eding</w>
liqu id</w>
hel pl
gen i
discipl ine</w>
cour se.</w>
conclus ion</w>
ar am</w>
a un
Reg is
Pro motion</w>
Pen sion</w>
Me eting</w>
Im port
H az
“ If</w>
wal king</w>
view ,</w>
v ain</w>
tri umph
some body</w>
resid ential</w>
ref use</w>
particip ants</w>
oc curren
i os
forgiv en
fiel d.</w>
ati n</w>
assum ed</w>
amm ation</w>
N A</w>
K it
tion s:</w>
th ick</w>
some what</w>
rap idly</w>
n ag
lo st.</w>
liv es.</w>
incorpor ated</w>
illi am</w>
head er</w>
h ills</w>
gr ass
g az
ex trac
ea .</w>
an th
R at
Guid elines</w>
Est abl
Bas ic</w>
Av ail
wif e,</w>
tor ,</w>
sam e.</w>
rid icul
re fin
min ute</w>
inter rup
forc e.</w>
f ea
end or
beli ed</w>
T S</w>
Hous e.</w>
ub il
s ad
paral lel</w>
mo on
ity )</w>
it r
integr ation</w>
inform ation,</w>
him self,</w>
d read
clou ds</w>
c ow
arg uments</w>
W OR
Tool bar</w>
S SA
India 's</w>
Found ation</w>
Cl ass
10 00</w>
. 11
vehic le</w>
success ful.</w>
sal es</w>
on c
fel low
ed :%</w>
cr ime</w>
benef icial</w>
as m</w>
Pol itic
O dis
F arm
C A</w>
199 8</w>
weap ons</w>
w ages</w>
sanc tioned</w>
oc ean</w>
no ise</w>
necess ary.</w>
l ement</w>
hab it</w>
fl our
exc av
electr ic</w>
concer ns</w>
P ack
Employ ment</w>
A li
t our</w>
shop s</w>
peac eful</w>
n am</w>
ing %</w>
exam ine</w>
enh ancing</w>
campa ign
Merci ful</w>
Ir an</w>
Hous e,</w>
vari eties</w>
ut ely</w>
t ender</w>
symptom s</w>
o ked</w>
mis chief</w>
ge ographical</w>
farmer s.</w>
colle agu
anc e;</w>
Z oom</w>
Z one</w>
T ex
Rus sia</w>
Jud ge</w>
E k
Con ver
B at
tis m</w>
oper ate</w>
ide als</w>
er ated</w>
belong ed</w>
Mar athi</w>
Loc ation</w>
Ak adem
14 ,</w>
1 :</w>
“ This</w>
y og
up dat
mass es</w>
ic s:</w>
flu id</w>
fe at
f ate</w>
att ain
V ig
Sm t.</w>
PRESIDENT ,</w>
For t</w>
Fol low</w>
(v )</w>
wr ath</w>
wh eat</w>
un k</w>
ri k
pho to</w>
offic i
mis sing</w>
im pos
id den
heal th.</w>
feel ings</w>
father s,</w>
exclus ive</w>
consequ ence</w>
clo th</w>
b ones</w>
V as
M ach
God ?</w>
Air port</w>
wor se</w>
resp ite</w>
remember ed</w>
k g</w>
invest ors</w>
id e,</w>
flow ,</w>
fair ly</w>
ex posed</w>
do ing.</w>
ash ing</w>
acc ident</w>
W illiam</w>
She ikh</w>
S top</w>
Jes us</w>
Gov t.</w>
Col um
y le</w>
w oe</w>
us age</w>
us ;</w>
t ly,</w>
ri es</w>
pl ay.</w>
per spec
it em
hol id
flo od
clos ure</w>
attrac ted</w>
TE D</w>
God ’s</w>
F er
stat utory</w>
sen tim
rout e</w>
politi ci
lat er.</w>
l i</w>
in cial</w>
il legal</w>
fear ing</w>
beg inn
Un ic
T error
Rus sian</w>
D as</w>
Ch al
web sit
un believers.</w>
sanc tion</w>
regular ly</w>
pl ed
pal ac
nam ely,</w>
idol s</w>
Subscri ber</w>
M e,</w>
strong ly</w>
se ize</w>
ro t
rel ess</w>
power ment</w>
modi fied</w>
mem bran
long -
lo ved</w>
insp ire</w>
ha g
fac e,</w>
evol ved</w>
email :</w>
cultiv ation</w>
conc eal
compl ain
behind .</w>
appell ant</w>
O N
D as
C ell</w>
Ah med
Afric an</w>
wear ing</w>
w ished</w>
ug u</w>
tod ay
sal ary</w>
refl ected</w>
prev ented</w>
king dom
hand le</w>
ep ing</w>
enter tain
Tech nical</w>
LDA P</w>
Grou p
AI R</w>
vis its</w>
trans lat
rul er</w>
p ed
p ear
n '</w>
min im
liar s.</w>
inter medi
im ported</w>
him ?</w>
he ed</w>
gr ants</w>
faith less</w>
exp anded</w>
em ic</w>
decre ed</w>
d river</w>
at a,</w>
D ou
स ी)</w>
shar p</w>
pre fer</w>
m ad</w>
inv ented</w>
imag in
http://pranabmukherjee.nic.in/pr 0
gradu ate</w>
det ail</w>
defin ition</w>
ar ise</w>
G RE
F C
3 4</w>
wat ch
responsibil ities</w>
pol lu
parti tion</w>
my th
iv e,</w>
it self,</w>
gl ass</w>
ens ed</w>
eas ier</w>
c hap
bon ds</w>
Y am
C itiz
y right</w>
sum mon
part ly</w>
necess arily</w>
nea rer</w>
max im
indic ates</w>
hous e,</w>
glor ify</w>
al d</w>
Or der</w>
ul t
though t,</w>
secur ity.</w>
sal t</w>
per m
over whel
mat es</w>
legisl ation</w>
la .</w>
inc ident</w>
heal th,</w>
dis believer
d anc
bo iling</w>
ar tificial</w>
ad s</w>
S ita</w>
Messeng er
K a
Institu tions</w>
G or
vari ed</w>
ul lah</w>
techni ques</w>
stat ements</w>
sol ved</w>
sci ence,</w>
ob taining</w>
mod e.</w>
increas ingly</w>
inaugur ate</w>
event ually</w>
consid ering</w>
bl ack
appreci ate</w>
UR L
S iva</w>
Mar y,</w>
A D</w>
tif f</w>
siz ed</w>
our selv
minis ters</w>
human ity</w>
hand ed</w>
good s.</w>
commenc ing</w>
at ar</w>
assu red</w>
asses see,</w>
ag end
Turk ish</w>
S anc
P ay</w>
Con nec
B R
wat ers</w>
st amp</w>
pron ounc
proceed ing</w>
pro pri
pre val
pay ments</w>
lak hs</w>
fe es</w>
farm ing</w>
drow ned</w>
consequ ences</w>
bro ther,</w>
Se a</w>
Rul e</w>
P aper</w>
M e.</w>
Emp ire</w>
App ell
wat ching</w>
truth ful.</w>
transp or
pres sing</w>
ma thematic
k h
k al
it :</w>
ish .</w>
in -
il y!</w>
bor ne</w>
b ought</w>
b ills</w>
Organ ization</w>
Gl ory</w>
E mer
16 ,</w>
y al
sea .</w>
prot ocol</w>
pro p
mag netic</w>
inter ven
i fies</w>
ey s</w>
execu ted</w>
dwell ers</w>
doub t
cou pl
ari es,</w>
Ob ama</w>
More over,</w>
H ell,</w>
Des ktop</w>
Abd ul</w>
201 6
15 th</w>
' S</w>
real ized</w>
re -
ow er</w>
olu tion.</w>
mankind .</w>
lov e.</w>
l un
iver se</w>
instruc tion</w>
diver si
dec eased</w>
chang e,</w>
bur den
aw ards</w>
al so,</w>
G en
( O
( Appl
v ote</w>
v ag
util ised</w>
ti sh
punish ment
por t,</w>
ous ly,</w>
mis sible</w>
leg i
im pression</w>
destro y
cre atures</w>
chec k
appl ies</w>
W ise</w>
Tur key</w>
S witch</w>
Minis ter
Cul tural</w>
Cour t.</w>
C L
school .</w>
relig ions</w>
rel ativ
re conc
it ed,</w>
happ ening</w>
dec ade</w>
cas es.</w>
arg um
T )</w>
Re ply</w>
N ote</w>
Know ing,</w>
Egyp t</w>
201 5
ty -
res embl
pr int
p ond
literat ure,</w>
it ation.</w>
in su
in stitutes</w>
him :</w>
furn ished</w>
cla use,</w>
b id</w>
arrest ed</w>
Organ iz
6 0
six ty</w>
rel atives</w>
r y.</w>
pret ty</w>
origin ally</w>
guid ance.</w>
custom s</w>
com ments</w>
cl er
boo k,</w>
anc ell
abund ant</w>
President ’s</w>
Oris sa
H om
G ita</w>
CR A</w>
3 0,</w>
. 10
st ress</w>
respec tively.</w>
ot echnolog
om mun
health care</w>
har i</w>
gri eve</w>
dis belief</w>
des ir
commis sion</w>
activ ity.</w>
acqu ire</w>
Plan ning</w>
P rev
N either</w>
N arm
INDI A,</w>
Cent res</w>
B ar</w>
veget ables</w>
thin ks</w>
quar ter</w>
protec ting</w>
p ick</w>
month s,</w>
m id</w>
ful ly.</w>
dev ic
col or
Nan ak</w>
E s
yourselv es,</w>
scat tered</w>
plan e</w>
m s,</w>
in justice</w>
ga p</w>
g in</w>
den omin
dang er</w>
arti cl
afores aid</w>
G ad
F our</w>
Arab s</w>
2 :</w>
2 1st</w>
s ick
refl ec
notic ed</w>
mark et
injur y</w>
es a</w>
em at
de grad
chastis ement.</w>
back ward</w>
T radi
S ear
Rad ha
RO M</w>
M OR
G al
Ap pe
AT ES</w>
ver s</w>
trav elled</w>
rel ations.</w>
prin ter</w>
inher it</w>
forgiv ing,</w>
fil e%</w>
eful ly</w>
air y</w>
V ish
N od
N H
195 6</w>
tw o.</w>
trav ell
summ ary</w>
sin n
resear ch
rad ical</w>
proper ty.</w>
p add
me ?</w>
mar ine</w>
m s.</w>
f igh
assu me</w>
al ism,</w>
Uttar ak
Rul es,</w>
ME SSA
G P</w>
D r
Compu ter</w>
C V
you '</w>
ul l
sa r</w>
r ide</w>
po is
par agrap
member s.</w>
lin e,</w>
issu es.</w>
institu tional</w>
in es.</w>
hat red</w>
go .</w>
extra ordinary</w>
cop ies</w>
c utting</w>
be t</w>
R ob
J e
Col l
Bas ava</w>
reti re
pers ist
olog y,</w>
h e,</w>
fl ight</w>
fi ed,</w>
enabl es</w>
develop mental</w>
ag on
Serv ic
Islam .</w>
Infra structure</w>
( Muhammad</w>
v ouch
ti se</w>
stor y.</w>
slow ly</w>
se iz
proc eed</w>
po or,</w>
pati ents</w>
n ations.</w>
ic ian</w>
gen us</w>
d aniel</w>
cop e</w>
b t
V IC
Lank a</w>
Afghan istan</w>
. 12
re posted</w>
pur ify</w>
po t</w>
pip es'</w>
oath s</w>
n ative</w>
is ite</w>
fl esh</w>
experi ence.</w>
engag ement</w>
cons ent</w>
_ 01
_01 .html</w>
Y ,</w>
M iz
K now</w>
In do</w>
Config uration</w>
Allah ).</w>
AR Y</w>
(Appl ause)</w>
tu ary</w>
squ are
quali fied</w>
or am</w>
mil es</w>
l es
integr ity</w>
institu tions,</w>
hy dr
gr and</w>
Top ics:</w>
TE R</w>
P I
On e,</w>
In tell
INDIA ’S</w>
4 00</w>
199 6</w>
194 7</w>
t ack
right ?</w>
possi ble,</w>
no .</w>
ind ec
h ome
endeav our</w>
ed e</w>
de preci
de ities</w>
critic ism</w>
am ent
ad ic
Ur ban</w>
Reg ion</w>
D a
Bhar ati</w>
Au thentic
13 ,</w>
where with</w>
w ant
urg ent</w>
th read</w>
old est</w>
fil ing</w>
el ine</w>
consist ent</w>
cl in
be at</w>
avo id
ak es</w>
Ass istance</w>
tw ain</w>
ques tioned</w>
pre jud
nam e,</w>
hol e</w>
gr ounds</w>
clip board</w>
c us
ban k.</w>
ass ur
ad vers
acqu ain
Tel ugu</w>
Te ach
SI ON</w>
Li ber
Ch and</w>
Boo ks</w>
y as</w>
world s.</w>
sor row</w>
sla y</w>
sh ir
sea ,</w>
s '.</w>
river .</w>
recogn ise</w>
pursu e</w>
for )</w>
exper t</w>
exist ence.</w>
exc essive</w>
d one,</w>
compu ted</w>
cat ch</w>
ab ad,</w>
a c</w>
M ail
Iran ian</w>
IV ER
Direc tory</w>
Christi ans</w>
An and
Allah '</w>
14 .</w>
( at</w>
“ What</w>
v i</w>
til es</w>
th in</w>
sus p
su pr
past ,</w>
newsp aper</w>
inv ested</w>
ign ore</w>
g un
fin ancing</w>
ex act</w>
disp utes</w>
de pri
author ity,</w>
ang a</w>
Tri pur
K es
Brit ain</w>
worship .</w>
unjust .</w>
thr ust</w>
plug ins</w>
or y,</w>
o o</w>
int ense</w>
gra ve</w>
encour aging</w>
doub t,</w>
conv eyed</w>
can didates</w>
Suchar ita</w>
MS ME
M UK
J ob
Gri ev
Director ate</w>
: -</w>
sion s.</w>
s wit
rev e
past .</w>
p ool</w>
member ship</w>
ic s.</w>
hand ling</w>
form at
convinc ed</w>
att ach</w>
are a,</w>
U pan
S on
P I</w>
Nam e:</w>
MESSA GE</w>
Ar un
Adv anced</w>
t abl
suppl ied</w>
sub sidi
stead fast</w>
ro man
qu est</w>
posi tion,</w>
p t</w>
organis ms</w>
ol d.</w>
morn ing.</w>
loc ked</w>
know ing.</w>
gen etic</w>
en rich
du pl
al co
T op</w>
An dam
you !</w>
w ave</w>
transport ation</w>
st able</w>
pos sibil
plac es.</w>
establish ing</w>
enter pris
en tries</w>
an eous</w>
affor d
P as
Inter est</w>
Dev ice</w>
CO V
.0 9
" He</w>
w all
valu ation</w>
st age.</w>
say s:</w>
s ement</w>
mess age
fi er</w>
er ves</w>
congrat ulated</w>
approxim ately</w>
answ ered</w>
R an
19 th</w>
wid er</w>
ul timately</w>
u ce</w>
tou cha
sum mer</w>
re action</w>
key board</w>
gr ass</w>
ed itor
ar y
T ermin
Pos ition</w>
India ;</w>
D omin
A char
.201 9</w>
work er</w>
ver tical</w>
trans form</w>
t ly.</w>
succ eed</w>
oblig ation</w>
o on</w>
lo f
langu ages.</w>
il y.</w>
him )</w>
entr ance</w>
energ y,</w>
enabl ing</w>
en counter</w>
cur sed</w>
citiz ens.</w>
circ le</w>
breast s</w>
br ight
book s.</w>
al ive</w>
abil ity,</w>
O il</w>
In stitut
Fi eld</w>
Dev i</w>
6 5</w>
( )</w>
u ch
resear ch,</w>
p est</w>
mus ic.</w>
decor ated</w>
cul ture,</w>
con cre
child .</w>
Val ley</w>
S or
Nor thern</w>
Jun e,</w>
um pet</w>
ph y
had i</w>
gir l
genu ine</w>
enti ve</w>
enti ty</w>
de ad,</w>
chae ological</w>
appreci ation</w>
V aj
Templ ate:</w>
Sum mit</w>
Sac red</w>
Proc ess</w>
Maj or</w>
Festiv al</w>
B ah
Ar t</w>
wonder ful</w>
war a</w>
uc c
st ations</w>
low est</w>
i di
happ in
h our
fe els</w>
ch ol
c ity,</w>
awa its</w>
and om</w>
al arm</w>
W ee
Sy m
Hous ing</w>
For giving</w>
Consum er</w>
B ack</w>
Au gu
3 7
’ t</w>
t ude</w>
system s.</w>
surround ing</w>
slight ly</w>
record ing</w>
mer ch
le :</w>
fr ight
fing er</w>
connec tivity</w>
c eas
autom atic</w>
ass ist
alli ed</w>
Vic er
Sh ort</w>
Q U
Proced ure</w>
O C
Lo ad</w>
H eav
GN U</w>
Depart ments</w>
Bha k
Am rit
Al l
. ]</w>
will s,</w>
til l
smoo th</w>
re tain</w>
possib ly</w>
magn ific
j ac
ex ic
duc tion</w>
com prising</w>
chang es.</w>
ar r
algorith m</w>
W as</w>
P references</w>
For um</w>
Comp as
B and
( x
sec onds</w>
retur n,</w>
r ical</w>
provis o</w>
op ol
develop ments</w>
dev i
bat sman</w>
N U
Maj esty</w>
Jag ann
G U
Con sul
C li
worship ,</w>
ul ations</w>
paren ts,</w>
mo re
install ation</w>
er y.</w>
defin ite</w>
d um
be tr
bal anced</w>
allot ted</w>
Tu be</w>
M s.</w>
Hear ing,</w>
Con struc
.0 8
‘ %</w>
z en</w>
uls ory</w>
so m</w>
pl ants.</w>
p av
on ing</w>
le g</w>
int end
ing ly.</w>
frequ ently</w>
e dit</w>
child ,</w>
ab str
Univers ity.</w>
15 0</w>
1- 4-
ther ap
ter m,</w>
stic k</w>
stat es.</w>
pilgr im
pic tures</w>
peac e.</w>
ol l
hi bi
fl ying</w>
dig nity</w>
charac ter.</w>
ban k
approach es</w>
ac tions.</w>
Tran sport</w>
Ta x
P ic
Net aji</w>
Maur iti
Islam ,</w>
Div is
D en
“ the</w>
where of</w>
th i</w>
t ested</w>
s and</w>
post s</w>
nin et
al istic</w>
U R</w>
Rail ways</w>
Prot ec
Brah ma</w>
w inning</w>
tren d</w>
sin .</w>
s ounds</w>
room .</w>
pre ference</w>
ox ide</w>
net work.</w>
mod els</w>
mar ch</w>
know n.</w>
ir .</w>
for th
exper ts</w>
ev a</w>
enorm ous</w>
d y</w>
beli ever</w>
al one,</w>
al location</w>
V A
J ain</w>
G E
Dwar k
Ch ur
Bri tish
Brah min
$ {
viol ence.</w>
tribu tion.</w>
mus cle</w>
min ing</w>
lap se</w>
ir i</w>
exist s.</w>
dis grace</w>
connec tions</w>
bl essing</w>
b ,</w>
am in
allow ing</w>
addres sing</w>
U T</w>
S C</w>
Res pon
Proc essing</w>
In tro
F ear</w>
B ot
Appell ate</w>
A ur
15 .</w>
vir tual</w>
trans c
sti l
s end
row ,</w>
mo ves</w>
it ative</w>
hand s,</w>
domin ant</w>
dang erous</w>
ar gue</w>
agricul ture,</w>
a rent</w>
W is
S ession</w>
Qur an)</w>
N ot
JE E</w>
J av
Ira q</w>
Constitu tion,</w>
Am bass
Agr a</w>
Abraham ,</w>
w ings</w>
tre k
t ext
sugges tions</w>
se al</w>
proc ess,</w>
ov ed</w>
oo d,</w>
iti v
glor ious</w>
for got</w>
confirm ing</w>
bu ff
bra ve</w>
attemp ts</w>
at ri
P ati
K ha
Is lands</w>
IP v
F .</w>
Cl ass</w>
( 5
un aware</w>
tiv eness</w>
tem por
stake holders</w>
rit ual</w>
ran ks</w>
pleas ant</w>
ner ve</w>
id st</w>
h all</w>
etc. ).</w>
d os
book s,</w>
bo at</w>
after no
ab out.</w>
S iv
Radha krishn
Pre view</w>
O h,</w>
O P
Muslim s,</w>
MUK HER
Gr ad
Excell ency,</w>
Au ro
Allahab ad</w>
0 1</w>
“ My</w>
ti an</w>
struc ture.</w>
sla ve</w>
in stitute</w>
furn ish</w>
freed om.</w>
ex it</w>
describ es</w>
adop tion</w>
Ver tical</w>
S emin
Roy al</w>
Proper ty</w>
B ush</w>
“ It</w>
vul ner
par t,</w>
p in
lam p</w>
inher it
in sur
for ,</w>
foo d
eng ine</w>
cr yst
corpor ation</w>
conduc ting</w>
ab ha</w>
Spir it</w>
On eness</w>
Mer cy</w>
J ain
> %</w>
sm en</w>
ser p
mol ec
j ail</w>
ignor ant</w>
contr ary</w>
bul k</w>
bri ef
bam boo</w>
at titud
app ing</w>
T an
J har
I M
Govern orate</w>
AD DRE
v iv
um an</w>
there of.</w>
sur render</w>
present .</w>
la ug
k ia</w>
ig ence</w>
i x</w>
gr ains</w>
evid ences,</w>
enter prises</w>
ent ;</w>
dr ag
be arer</w>
ast s</w>
al is
N az
Govern ors</w>
Fr ance</w>
ER S</w>
Ayur veda</w>
A ble</w>
w ond
tim ely</w>
shad ow</w>
sh ell</w>
par t.</w>
os .</w>
itt le</w>
compan ion</w>
cloth es</w>
a v</w>
Th om
Sw ed
Stand ards</w>
Ro ad</w>
Gaz ett
F )</w>
Con vention</w>
wher e,</w>
wer e,</w>
tal ent</w>
subsid y</w>
spac e.</w>
she ep</w>
prepar ing</w>
perc ep
out come</w>
in sol
expend it
ent ures</w>
dis h</w>
cooper ative</w>
attac ked</w>
W .</w>
Form at</w>
199 2</w>
' This</w>
with draw</w>
w ret
valu es.</w>
sis ters</w>
sing ing</w>
right s.</w>
res istance</w>
read ers</w>
radi ation</w>
produc tion,</w>
p en</w>
need y</w>
mon itor</w>
me ;</w>
ing !</w>
incl u
for th,</w>
f aster</w>
es ),</w>
en na</w>
eaf ter,</w>
dra g</w>
do ors</w>
b om
agre ements</w>
ac knowled
W ild
Var an
L ist
H ence,</w>
Cont acts</w>
Chhat tis
Bu ild</w>
An sw
A S</w>
5 5</w>
spec im
s ak
rel atively</w>
r at</w>
per s,</w>
par ad
mo ther,</w>
mit ting</w>
min eral</w>
la ke</w>
dis grac
cons ist</w>
con fron
com prises</w>
T at
S em
Pr ac
P ip
Nag ar</w>
Mun icipal</w>
L )</w>
Ch em
B S
10 0
y a.</w>
tr i</w>
spea ks</w>
s ound
rest ing</w>
play ers</w>
org ans</w>
off spring</w>
is lands</w>
i v</w>
i .
every body</w>
dis abl
di et</w>
democrac y.</w>
Trans l
Pre par
Nor mal</w>
Durg a</w>
Administr ation</w>
16 .</w>
thr one</w>
tex ts</w>
str ic
say .</w>
s now</w>
nav ig
convers ation</w>
colon ial</w>
ad a,</w>
V e
Rec over
R ate</w>
Nod al</w>
Implement ation</w>
Badr uddin</w>
B ac
w ont</w>
require d.</w>
rang ing</w>
proced ures</w>
present ,</w>
p ping</w>
manag ing</w>
it arian</w>
im .</w>
ever th
daw n</w>
continu ing</w>
b h
applic ant</w>
Wh om</w>
Res id
Neh ru
Monothe ism
Me an
Man i
Lo g</w>
6 00</w>
4 8
w an
tre e,</w>
soul ,</w>
return ed.</w>
rel ate</w>
protec tor</w>
m ount</w>
ly m
in %</w>
hy per
hear ing,</w>
dra f
design ated</w>
commun ity,</w>
atmosph er
at a.</w>
ass et,</w>
Pro jec
P ot
Nic ob
Micro soft</w>
Corpor ate</w>
Agre ement</w>
A UG
tion ing</w>
period s</w>
o id</w>
nec k</w>
harv est</w>
emerg ency</w>
book marks</w>
ar rest</w>
am ended</w>
Wh osoever</w>
Po int</w>
D R
B lo
Ap ply</w>
् र
wel com
v ara</w>
typ ical</w>
syn chron
st ability</w>
serv es</w>
satis fy</w>
public .</w>
per pet
pay ee</w>
k ings</w>
investig ation</w>
ic ed</w>
fav ors</w>
condi tion.</w>
co ff
co con
ch es,</w>
S ak
Gol den</w>
Down load</w>
19 ,</w>
17 ,</w>
' O</w>
writ ing.</w>
sup port
sol em
sec ured</w>
programm e.</w>
g ress</w>
ex hib
estim ate</w>
con spir
barri er</w>
b its</w>
aus picious</w>
anal ys
W ay</w>
V in
T un
SI T
Resurrec tion.</w>
Mahabhar ata</w>
MI ME</w>
M edic
Bhag at</w>
Academ y</w>
201 6</w>
1 3.</w>
( *</w>
trust .</w>
th ri
secur ity,</w>
permission s</w>
min er
long .</w>
labor ator
i qu
g al
fre ely</w>
ess ors</w>
electr ical</w>
disc over</w>
ator s.</w>
advis e</w>
Ver ily!</w>
Ta j</w>
IMA P</w>
G hos
D on
Ch ancell
Ad am
w inter</w>
ul es</w>
sens e.</w>
r ank
philos op
peopl e
own ership</w>
mu ch.</w>
fir st.</w>
fil ms</w>
ep ic</w>
e z
control .</w>
c ool</w>
Ver y</w>
Ob ject</w>
K hal
H owever</w>
18 ,</w>
wrong doers</w>
u plo
specific ally</w>
shel ter</w>
ra il</w>
projec ts.</w>
pa th,</w>
op pon
occas ion.</w>
mon etary</w>
l umin
husb and
grow s</w>
col our
c ogn
bo ost</w>
author ized</w>
answ ers</w>
accommod ation</w>
Rabind ranath</w>
Lo k
C lim
B AR</w>
Al low</w>
(Mos es)</w>
( film)</w>
wind s</w>
us al
stor m</w>
servic e,</w>
render ing</w>
ren ce</w>
re habil
p harmac
p estic
no body</w>
near by</w>
mat ter,</w>
la ys</w>
continu ously</w>
com position</w>
c auti
ay an
accep ts</w>
S l
H i
C hap
B ills</w>
B al</w>
0 9
villag ers</w>
tri be</w>
to )</w>
tal ks</w>
subsequ ently</w>
so red</w>
s witch</w>
repe at</w>
lin ess</w>
lik eness</w>
inv est</w>
fir st,</w>
em ails</w>
dol lar
cred its</w>
be gun</w>
back end</w>
ar ter
Y es</w>
T end
R BI</w>
Prot ocol</w>
Prim ary</w>
M r
L ove</w>
Ger man
Direc tors</w>
Cre ator</w>
" Why</w>
whil e.</w>
rece ives</w>
programm ing</w>
pen al
paramet ers</w>
on ym
ol d,</w>
mou th
migr ation</w>
it ude</w>
hop es</w>
f lav
distur b
destin ation.</w>
d ow
cre ation,</w>
b la
anc est
absol utely</w>
S ug
Qu it</w>
I IT
Com mon
Char ac
Administr ative</w>
vis ual</w>
ter m.</w>
t ests</w>
str ang
sc or
resid ence</w>
nerv ous</w>
liber al</w>
li es,</w>
ing a</w>
ep is
eg o</w>
del ic
commis sion
bre eding</w>
audi ence</w>
R is
Di ffer
D ic
Br asero</w>
Auro bind
A C
wor e</w>
trib es</w>
symbol ic</w>
stud ying</w>
s ed.</w>
refer ring</w>
lik e,</w>
lab our
jew ell
gener ating</w>
ess ence</w>
aff ects</w>
Part ner
Lo an</w>
L ake</w>
L IN
J ord
Hindu ism</w>
En try</w>
ENT S</w>
Con di
Ay at</w>
20 th</w>
util ity</w>
troop s</w>
soci o</w>
simultan e
sign ,</w>
restric ted</w>
qu oted</w>
ob i
mo tor</w>
men )</w>
k new
it ed.</w>
in puts</w>
hous es,</w>
from %</w>
fe et.</w>
ev ing</w>
clam ation</w>
ch es.</w>
at s.</w>
any thing.</w>
ach .</w>
ab od
ab dom
U z
P ha
MUKHER JEE</w>
Kor an</w>
F ig
Att ach
: '</w>
wrong ed.</w>
ti .</w>
re in
loc ally</w>
di ffer</w>
chann els</w>
b ut
ar ises</w>
air craft</w>
ac y.</w>
Tru th
St ar</w>
IT Y</w>
F OR
Ex per
Ap point
A K
ut most</w>
tal ked</w>
rol led</w>
recipi ents</w>
proper ty,</w>
paint ings</w>
inser t</w>
ent ers</w>
emer ge</w>
e .,</w>
con j
comp ati
col oured</w>
classi fied</w>
c hat</w>
c ache</w>
bel ow.</w>
ab normal</w>
a e</w>
Sat ur
Ren ame</w>
Pre m</w>
Kab ir</w>
Ind us</w>
H R
G R
Des pite</w>
Bhag av
( November</w>
y a
trib uting</w>
on -
mod ule</w>
is land</w>
hard ship</w>
energ y.</w>
effec t.</w>
concern ed,</w>
ast ro
arri ve</w>
anti cip
ad minis
ad her
accoun ting</w>
Wash ington</w>
PO P</w>
Jer usal
Fa ith
Chenn ai</w>
5 0,</w>
( on</w>
us ?</w>
sear ching</w>
qui et</w>
pic ked</w>
iti ous</w>
in y</w>
in come,</w>
dis puted</w>
cre ation.</w>
cla uses</w>
cast ing</w>
aspir ations</w>
afflic ted</w>
Wor ship</w>
Sing les</w>
Secur ities</w>
Sc ale</w>
Reg istr
N and
Conn ection</w>
C lean</w>
6 4</w>
5 1</w>
th on</w>
te eth</w>
st ag
sil k</w>
resol ved</w>
re l</w>
proph et</w>
plain tiff</w>
organ ism</w>
movi e</w>
mic ro</w>
hum ans</w>
her eafter</w>
club s</w>
cla y</w>
c oc
Tit le</w>
SS L</w>
Re place</w>
Lo ading</w>
Head er</w>
Gujar ati</w>
G P
Fac il
Descrip tion</w>
3 4
withdraw al</w>
u ter
stri ving</w>
purcha sed</w>
nov els</w>
mur der</w>
modi fy</w>
la ying</w>
is i
hel per.</w>
friend s.</w>
est s.</w>
es /
encour ag
ed ]</w>
earli er,</w>
dru g
dialo gue</w>
compl iance</w>
character istics</w>
char ity</w>
bi o
Wid th</w>
Th em
S idd
Qur an
G h
Com mer
Chr ist
Ag ency</w>
Afghan ist
199 7</w>
0 3
val s</w>
un seen</w>
ud ,</w>
to ken</w>
scen ari
repli ed:</w>
rem un
perman ently</w>
pati ent.</w>
p ad</w>
occup ation</w>
mist ake</w>
it i</w>
fon ts</w>
f eared</w>
end owed</w>
en ary</w>
eg g
commodi ties</w>
beh old</w>
architec tural</w>
ad mission</w>
W il
Un til</w>
G eh
Chair man,</w>
Bran ch</w>
Bha i</w>
" God</w>
vit amin</w>
ut i</w>
ub er
telev ision</w>
sp ic
six th</w>
s well
read .</w>
pursu ed</w>
photo graph
it ra</w>
hard ware</w>
detail s.</w>
depos ited</w>
comm em
child hood</w>
ch and</w>
be fall</w>
as a
Sab ha,</w>
Commer ce</w>
9 )</w>
un iverse</w>
tor s,</w>
sn ake</w>
server %</w>
resul t,</w>
pati ently</w>
ish i</w>
is ms</w>
id a</w>
i -
hor ticul
flo od</w>
ex port
ep hon
doc tr
cont emp
applic ation.</w>
Tog gle</w>
S wit
S ant
Mon itoring</w>
MS ME</w>
Commun ity</w>
194 8</w>
t a,</w>
reg ime</w>
r ant</w>
qu een</w>
or thod
om ed</w>
liter acy</w>
it ably</w>
ignor ance</w>
h ire</w>
ed '</w>
d ed
c ouldn</w>
ar ith
Yoj ana</w>
Tr uly,</w>
No kia</w>
K at
J al
Isra el.</w>
Is land</w>
wor d,</w>
u pl
rul e.</w>
pul l</w>
perce ive</w>
mar v
m m</w>
li ked</w>
host ed</w>
god dess</w>
g ates</w>
entrepreneur s</w>
d :</w>
canc er</w>
b ore</w>
assess ed</w>
Unic ode</w>
Sum m
Man il
Cust om
Congres s.</w>
Arun achal</w>
un toucha
th y
sem i</w>
ro bo
nor ms</w>
mut ually</w>
l in</w>
ex changes</w>
c ut
Secretari at</w>
Ma hal</w>
M ENT</w>
M A</w>
Jac ob
Benefic ent</w>
ward s.</w>
vill age.</w>
soci eties</w>
reas on.</w>
poetr y.</w>
pilgr image</w>
pat ch</w>
part y.</w>
mountain s,</w>
mis sed</w>
isha ble</w>
hold !</w>
fulf ill</w>
ev ed</w>
determin ing</w>
com ment</w>
bet ter.</w>
b ath</w>
al pha
ac ute</w>
Y outh</w>
With in</w>
Su f
Stra ight</w>
S ucc
R ani</w>
N as
I con</w>
F e
Ass am
ANA B</w>
tar gets</w>
s oph
par able</w>
long ,</w>
log in</w>
l ord
interest ,</w>
identi fication</w>
gre en
crow d</w>
consum ers</w>
c ard
as y</w>
an ish</w>
ach es</w>
Tr y</w>
Tr ue</w>
S ign</w>
S P
PR ANAB</w>
Orig inal</w>
M ari
G T
De b
( saying
ubil ee</w>
sha n</w>
sector s.</w>
particular s</w>
p ra
ome tr
mu d</w>
mess age,</w>
loc ks</w>
list ening</w>
less er</w>
gather ing</w>
fil es.</w>
dre ams</w>
compl aints</w>
b ent</w>
an ia</w>
O m
Nag al
Build ing</w>
Avail able</w>
A Y
wrong ,</w>
vouch saf
vo id</w>
u es</w>
reg ulation</w>
number s.</w>
nuc le
dis aster</w>
coun ted</w>
ator s,</w>
ath y</w>
all ing</w>
acc ru
abov e,</w>
Writ ing</w>
T ill</w>
No bel</w>
H ard
Gazett e,</w>
Error :</w>
Environ mental</w>
E vil</w>
Ban king</w>
thank s.</w>
stud ents,</w>
sp ending</w>
rol ler</w>
rel ates</w>
philosoph ical</w>
pass es</w>
p oo
n ut</w>
manag ement.</w>
main tain
l uc
kind .</w>
joint ly</w>
im movable</w>
ho tel</w>
gri ef</w>
g a</w>
divid end</w>
deep er</w>
commod ity</w>
build ing.</w>
att end
arriv al</w>
ar di
ar aja</w>
ador ned</w>
Mo z
Jhar k
C S</w>
B road
B less
Ac tive</w>
A M</w>
( W
truth ful</w>
spec tr
sin ful</w>
sec ular</w>
retri eve</w>
remind ed</w>
mus ic,</w>
long- term</w>
lev ied</w>
gener ous</w>
g e.</w>
fram ed</w>
forc e,</w>
flow s</w>
def endant</w>
cap ture</w>
b low</w>
T ab
Presid ent.</w>
Pol y
N IT
Mod ern</w>
L ong</w>
G ram</w>
Fol lowing</w>
A SE
ver sion
th :</w>
su t
speech ,</w>
on ly,</w>
n agar</w>
intellig ent</w>
in timate</w>
group s.</w>
good ly</w>
expl os
coun sel
celebr ations</w>
associ ates</w>
arrog ant</w>
any where</w>
al im
Tim es</w>
Parti cip
B ach
Authentic ation</w>
Anj uta</w>
Am ount</w>
w ound</w>
volun te
vide os</w>
und ou
st s.</w>
scap e</w>
sc rut
s .
room s</w>
reti red</w>
pr inter
polythe ists</w>
mis s</w>
mi x</w>
ly ;</w>
lo ts</w>
lab el</w>
it )</w>
in tox
import ance.</w>
imag ination</w>
for d</w>
fi g</w>
ext ending</w>
emp ire</w>
el ess,</w>
do ers,</w>
desc endants</w>
civil ization</w>
Secret ary,</w>
Mar ket</w>
Ear li
Al ong</w>
x ious</w>
where on</w>
war ri
viz .</w>
treas ure</w>
se en.</w>
ri ,</w>
resid ents</w>
pun ished</w>
pro found</w>
o g</w>
ne ath</w>
la x
invol ve</w>
explan ation</w>
en joined</w>
dispos al</w>
compu ters</w>
canc el</w>
al so
Mus e
Jun k</w>
J i
I C</w>
HT TP</w>
D est
201 7
.201 7</w>
res cu
repent ance</w>
l ending</w>
jo y
for t
es is</w>
en acted</w>
e e,</w>
dem er
dec imal</w>
Sab ha.</w>
P lay
K y
Judg ment</w>
3 3
} .</w>
trans form
there in
p el
neighb our
law y
is s
ic h
fail s</w>
expl ains</w>
es ter</w>
es c
compu ter.</w>
at ra</w>
arti stic</w>
ar s,</w>
Sah itya</w>
Rem inder</w>
P raise</w>
Allah ),</w>
' My</w>
w ary</w>
vacc ine</w>
te m</w>
sub stitu
stor ing</w>
revis ed</w>
res or
ques tion.</w>
pre ad</w>
pr ice.</w>
pat ron
n ia</w>
is n</w>
harm ful</w>
ful ness</w>
for gotten</w>
er s;</w>
domin ion</w>
doc tors</w>
di ff
deleg ation</w>
defin itely</w>
cur sor</w>
condi tions,</w>
circu it</w>
ci v
b acc
appreci ated</w>
Portu gu
M ary</w>
Law s</w>
I )</w>
Bure au</w>
" ;</w>
weak ness</w>
trans mitted</w>
tap e</w>
sus pend
su ff
sin s,</w>
sid es.</w>
relig ion
promis es</w>
process ed</w>
par don</w>
ity ?</w>
har b
do or
discover y</w>
dea f</w>
chec king</w>
cal f</w>
al ik
ac y,</w>
Vill age</w>
Tre at
Sen ior</w>
Second ary</w>
Ra o</w>
Ra di
N ig
Mem ber
Lar ge</w>
201 7</w>
2 4,</w>
( against</w>
voc ation</w>
schedul e</w>
resp ect
os s</w>
le ;</w>
im par
i ble.</w>
dec id
cont empl
bre th
ash .</w>
Wh er
S pl
Rus si
P ut</w>
Minis tr
50 %</w>
4 2</w>
" Who</w>
volum es</w>
v ary</w>
ur ,</w>
ul ts</w>
tour ists</w>
sign s.</w>
ren ame</w>
proph ets</w>
pea k</w>
own ,</w>
n ic</w>
lu x
ke e
job .</w>
itt ed.</w>
ir rit
involv ement</w>
fold er.</w>
festiv als</w>
exec ut
exam ined</w>
enforc ement</w>
en ch
av an</w>
admon ition</w>
ab h</w>
Sav ing</w>
Pay ment</w>
N ation
Messeng er.</w>
Leg al</w>
God dess</w>
F F
B il
Al li
6 th</w>
transgressor s.</w>
stead fast
re mind</w>
quot ;</w>
on e)</w>
lo t
ing e</w>
import ant.</w>
elabor ate</w>
dis believers,</w>
com eth</w>
br e</w>
ah )</w>
Punjab ,</w>
Per sons</w>
HA V
English .</w>
Bas ed</w>
Al mighty,</w>
( e)</w>
w il
tax es</w>
real isation</w>
oc ket</w>
ha i</w>
et a</w>
en am
defe ated</w>
dam aged</w>
d i</w>
comp ulsory</w>
c k
bl am
X ML</w>
Sing ap
RE N
Pow er
Mem ory</w>
Ind ones
High er</w>
Chang es</w>
Autom atically</w>
4 th</w>
0 5
u bl
res ign
rec eption</w>
ra p</w>
r um
qu e
p urely</w>
occas ion
liveli hood</w>
less ly</w>
indi a</w>
gr ound,</w>
func tional</w>
f ight
can e</w>
bab u</w>
au n</w>
att ack
accep ting</w>
V all
Pro mo
Pet roleum</w>
Pat el</w>
Jos eph
AN T
8 th</w>
welcom ed</w>
vi able</w>
ud ed</w>
ter :</w>
suppor t.</w>
sub s
pedi a</w>
j j
exec ute</w>
dis bur
can ,</w>
bar .</w>
ask ed,</w>
angu lar</w>
Trav el</w>
Str ateg
S n
Organ isation</w>
M erc
Know er.</w>
Jan uary,</w>
IN AUG
INAUG UR
Gang es</w>
Ev er</w>
Chan dig
C ric
12 th</w>
undou bt
tax ,</w>
sub stitute</w>
or y.</w>
mad e,</w>
innov ations</w>
fav or
enc e;</w>
concre te</w>
admon i
a o</w>
Stand ing</w>
Pro b
Pri ze</w>
Or ,</w>
Ma th
Liter ature</w>
Jes us,</w>
CO UN
Benef it</w>
199 3</w>
( 6)</w>
whe el</w>
we igh
v ested</w>
tw enty-
tre e.</w>
tit led</w>
r ate.</w>
pur ity</w>
newspa pers</w>
n our
mis er
load s</w>
ish ,</w>
in tr
g y
favour able</w>
f ever</w>
ext ends</w>
exp anding</w>
est ate</w>
cap tured</w>
c up</w>
be et
ab st
W it
Saty agra
R ever
Abd ullah</w>
( this</w>
( it</w>
! '</w>
wh oso</w>
w ake</w>
run n
renew able</w>
programm es.</w>
morn ing,</w>
min or
meet ing.</w>
m es</w>
it ated</w>
exper tise</w>
dem anded</w>
bra h
ar is
al ter
ad verse</w>
absor bed</w>
Wr ite</w>
VI SI
T ool</w>
T aste</w>
N GO
Initi al</w>
Ex tension</w>
D ru
3 8</w>
worship ping</w>
to il
tin y</w>
this ?</w>
pursu it</w>
premi um</w>
pl astic</w>
ph a</w>
perf ection</w>
peopl e:</w>
ob viously</w>
id er</w>
guid ing</w>
dol lar</w>
dis tor
certific ates</w>
bu il
as is</w>
an xi
U B
Ty pe
Sind hi</w>
Recover y</w>
Pho to</w>
P S
Mag istr
I A</w>
Clim ate</w>
C entr
Akadem i</w>
A vi
18 th</w>
( their</w>
up dated</w>
tic k
tes tify</w>
spirit u
schem e,</w>
rout ine</w>
re pair</w>
outw ard</w>
o a</w>
mechan ical</w>
loc ate</w>
lo os
lev els.</w>
it ud
hor izontal</w>
func tion.</w>
f )</w>
dust ,</w>
do ?</w>
ded ication</w>
complet e.</w>
c at</w>
brow n</w>
arch y</w>
a g</w>
Sar asw
Rem ov
Man u
MIN IS
Hor izontal</w>
Chal uk
C ouldn</w>
B ap
Au dit</w>
4 4</w>
(vi )</w>
vouchsaf ed</w>
ver te
us eful
them !</w>
sil ent</w>
per sec
part s.</w>
mus eum</w>
mov ement,</w>
meas ured</w>
is :</w>
hy po
hun ger</w>
fir ms</w>
ann a</w>
accum ulated</w>
Stat ement</w>
S elec
Refer ence</w>
Pr ad
P ra
Fr id
Cul ture</w>
Cooper ation</w>
C ri
4 7</w>
त ा
y alty</w>
stu ff</w>
sp ell</w>
sha de</w>
serv ants,</w>
resul ts.</w>
rest s</w>
pre viously</w>
parti es.</w>
par k</w>
op pres
mone y,</w>
matur ity</w>
manag ement,</w>
lof ty</w>
k itch
gl aci
el der</w>
e ”</w>
dyn asty</w>
don '</w>
dis order</w>
coast al</w>
an es
S .
Langu ages</w>
Dwark anath</w>
10 th</w>
yester day</w>
under neath</w>
that )</w>
sav ings</w>
s aint</w>
resourc es,</w>
reas on,</w>
pil lar</w>
particip ated</w>
occurren ce</w>
modi fication</w>
ma id
j ack
grac ious</w>
friend s,</w>
di abet
colleg es</w>
be hold,</w>
arti sts</w>
adul ter
Vivek ananda</w>
U sed</w>
S ust
P rais
Mov ement</w>
M )</w>
Fre ed
wor ry</w>
tr ace</w>
su rely,</w>
sp ect</w>
so on.</w>
rol l
ro s
revolu tion
re vision</w>
pregn ant</w>
olog y.</w>
mo thers</w>
mission .</w>
mess ages.</w>
k in</w>
in car
gu ards</w>
even ing.</w>
con jec
chromos om
bur d
br and</w>
be falls</w>
adv ances</w>
activ ities,</w>
S us
P lat
O ld</w>
Luc know</w>
INDI AN</w>
Hindi .</w>
Ambass ador</w>
Ad am</w>
Achar ya</w>
A sut
vill ages.</w>
u res
su bl
soci o-
polic y,</w>
num ber,</w>
necess ity</w>
multi -
il ance</w>
g ar</w>
facil ities.</w>
es ...</w>
depreci ation</w>
d as</w>
concentr ation</w>
Up on</w>
O l
Kov ind</w>
Democr atic</w>
9 9</w>
vari able</w>
tra it</w>
sun g</w>
qual ific
purpos es.</w>
pres erved</w>
neighb ouring</w>
need s.</w>
m ap
ish ed,</w>
g e,</w>
fa ther.</w>
diseas es.</w>
clas s.</w>
character ized</w>
astr ay
anim als.</w>
an ic</w>
L ol
Hell .</w>
H it
Cop ying</w>
Bangal ore</w>
2 1,</w>
tro p
them )</w>
teach ings</w>
secre tly</w>
res erves</w>
re ci
pas sion</w>
oc y
man ip
isc al</w>
industri es.</w>
in ous</w>
hy gi
explo itation</w>
evil .</w>
en )</w>
ap paren
Viet nam
Tru th,</w>
Technolog y,</w>
Stu dies</w>
S tri
Minis tries</w>
F ir</w>
( It</w>
wrong doers.</w>
trust ed</w>
ti m</w>
preval ent</w>
prev ailing</w>
own ers</w>
n as
incid ents</w>
gam es</w>
dist res
contro ls</w>
collec ting</w>
be ach</w>
ador n
Solom on</w>
S t.</w>
Res et</w>
K han
Cooper ative</w>
Constitu ent</w>
Aur ang
4 1</w>
( proofs,</w>
% )</w>
trav elling</w>
ta g</w>
t ank</w>
sun ,</w>
soul .</w>
soph istic
ris ks</w>
purpos e,</w>
man ship</w>
it ation,</w>
inv itation</w>
im ports</w>
fr ac
fo res
cr ude</w>
coo king</w>
am idst</w>
ad hy
Rep ubl
Octo ber,</w>
Kashmir .</w>
we '</w>
pl enty</w>
occas ions</w>
me al</w>
m a,</w>
inv ent
here by</w>
guaran te
form ulation</w>
cur ricul
cro re.</w>
conce ived</w>
br ac
ati .</w>
aff ec
Y et,</w>
Ti bet
Su b</w>
Ra ther,</w>
Pro vis
Pl ant</w>
No tification</w>
17 .</w>
1 '</w>
utter ly</w>
u a</w>
tu ber
su ic
startu p</w>
restric tions</w>
remember )</w>
por tr
p age.</w>
less ons,</w>
lead er
human ity.</w>
her o</w>
heav en,</w>
de bug
contr adic
confirm ed</w>
citiz en
and um</w>
Rec ord</w>
O ther
Medi um</w>
Malay alam</w>
Lord :</w>
Cour t,</w>
88 59</w>
199 1</w>
you ."</w>
st an</w>
schol ar</w>
reg im
proof s</w>
proc eeds</w>
po or.</w>
medic inal</w>
loc ations</w>
laun ch
f ers</w>
exist .</w>
et us</w>
co ordinate</w>
ci ent</w>
care ,</w>
cal m</w>
bit ter</w>
b ut,</w>
ativ es.</w>
Ven k
Vari ous</w>
Schem es</w>
S V
S ER
Rel i
Lt d.</w>
K az
J uly,</w>
Dis c</w>
Com merci
B oun
Al m
2 3,</w>
2 2,</w>
t on,</w>
sur ve
reward ed</w>
repl ied</w>
re now
ra o</w>
n ig
mission s</w>
met res</w>
marg in</w>
l ists</w>
humili ating</w>
head ers</w>
h ours.</w>
griev ances</w>
favour ite</w>
el se.</w>
dig nit
compl icated</w>
co st.</w>
bel l
at s,</w>
arti st</w>
Y ah
Spec ify</w>
N il
Mic ha
I l
G as</w>
Every one</w>
2 7,</w>
( Amendment)</w>
vir us</w>
tool bar</w>
tal es</w>
sur pris
sub ordinate</w>
set .</w>
resear ch.</w>
rec t
passeng ers</w>
ha k
group ,</w>
ens e,</w>
dist ress</w>
coun t
correc tly</w>
cam era</w>
ar ity</w>
Ved as</w>
Qu een</w>
Out put</w>
Go a</w>
Emp ty</w>
3 7</w>
11 th</w>
where fore</w>
vim ana</w>
u k</w>
translat or</w>
sp ous
sam pl
remo ving</w>
poll ut
pattern s</w>
mos qu
mal es</w>
ir a</w>
ing er</w>
him ),</w>
griev e.</w>
govern ing</w>
embr y
eg o
earli er.</w>
divor c
command .</w>
co ast</w>
ch est</w>
candi date</w>
build ing,</w>
brilli ant</w>
ate way</w>
Z ak
N IO
M exic
Know ing</w>
IC T</w>
Her it
Hary ana</w>
Afric a.</w>
.0 5
( Al
“ Our</w>
treat ment.</w>
transp arent</w>
there with</w>
s oo
res ort</w>
prote in</w>
produc ts,</w>
premis es</w>
particip ating</w>
par a</w>
oul d,</w>
member s,</w>
ili ation</w>
i ya</w>
h es</w>
es ]</w>
enjo in</w>
em ble</w>
earthqu ake</w>
divor ce</w>
dec lined</w>
col ors</w>
bre ach</w>
ar ing</w>
an gry</w>
St or
My an
I ES</w>
Gandhi ,</w>
Em peror</w>
Doc um
Ab hi
7 th</w>
' {0}
" "
ि य
top .</w>
t one</w>
resp ir
poin t,</w>
peopl es.</w>
od a</w>
ly )</w>
lo t.</w>
leav e,</w>
inspec tion</w>
inj ured</w>
initi ally</w>
f itting</w>
el even</w>
circumst ances.</w>
bu ying</w>
bi ological</w>
ba g</w>
Sw ach
Res ources</w>
Pr ince</w>
P ul
D ol
B hop
200 0.</w>
199 0</w>
0 )</w>
yourselv es.</w>
undoubt edly</w>
tran qu
them es</w>
th ana</w>
refl ects</w>
nomin ated</w>
mand atory</w>
le an
jin ns</w>
gu ess</w>
follow s:</w>
environ ment,</w>
enqu iry</w>
at ing.</w>
Tham ud</w>
Scienti fic</w>
Rev enue</w>
Ra dio</w>
M ong
M el
H all</w>
Ar med</w>
Andam an</w>
19 .</w>
18 .</w>
z y
us ed,</w>
trans formed</w>
par se</w>
os ,</w>
nam ely
m ari
list en
ill iter
gl and</w>
em powered</w>
e enth</w>
do g
contr ast</w>
conclud ed</w>
b y.</w>
ar ts</w>
an i,</w>
al ing</w>
ak r
US A</w>
Par v
Mumb ai,</w>
Inst all</w>
Canc el</w>
B eg
writ able</w>
will ed</w>
vess els</w>
u g</w>
t ends</w>
siv e.</w>
reckon ing.</w>
nov el
imprison ment</w>
high .</w>
concern ed.</w>
compas sion</w>
break s</w>
boun ties</w>
b read
ash es</w>
ap ur</w>
V r
S D
F ROM</w>
English ,</w>
Congres s,</w>
Accord ingly,</w>
0 7
" {0}
word :</w>
wea ker</w>
under lying</w>
u v
sw ift</w>
sovereign ty</w>
sion s,</w>
school ,</w>
satell ite</w>
practic e.</w>
poetr y,</w>
person s.</w>
long ed</w>
intro duce</w>
in mates</w>
ill us
fore ign
femal es</w>
exc eption</w>
ed ited</w>
ear s,</w>
cros sed</w>
cre ated.</w>
compas sion
care .</w>
argu ed</w>
an thro
a ),</w>
S rin
Qur an,</w>
Politic al</w>
P aul</w>
Offic es</w>
Man ipur</w>
L al
Inde x</w>
B la
.0 1
wal ked</w>
w are
vibr ant</w>
threat ened</w>
ten ant</w>
supr amental</w>
shif ted</w>
separ ation</w>
se di
pover ty,</w>
is co</w>
int ensive</w>
inst inc
ic ally,</w>
g ence</w>
fir st
consu mer
c lock</w>
bl ast</w>
at ing,</w>
ar t.</w>
and )</w>
Wild life</w>
Rec ent</w>
Nay !</w>
D ist
Cli ent</w>
C lear
Bel ar
Advis ory</w>
Ac qu
2 8,</w>
2 50</w>
( that</w>
( October</w>
typ e.</w>
ter ;</w>
speech es</w>
regul atory</w>
pack ages</w>
ornam ents</w>
mod erate</w>
ment :</w>
medi eval</w>
less ness</w>
k er,</w>
govern ed</w>
fund ing</w>
folder %</w>
el et
decre ase</w>
control ling</w>
author s</w>
agend a</w>
ac t,</w>
ab iding</w>
Reg ulation</w>
Ques tion</w>
MA PI</w>
Lah ore</w>
Islam ists</w>
In put</w>
C ost</w>
C ategory</w>
Bud get</w>
An tar
ti p</w>
t s;</w>
sla ves</w>
sin s.</w>
prosec ution</w>
obst ac
o di
mo on,</w>
meaning ful</w>
l on
incenti ves</w>
ill ness</w>
form ula</w>
flag s</w>
fear .</w>
ex empl
es ).</w>
econom y,</w>
diseas e,</w>
dis posed</w>
dis closed</w>
describ ing</w>
des pair
confirm ation</w>
condem ned</w>
cap abilities</w>
c ep
ay a,</w>
Sar o
SE S</w>
S ali
Man ual</w>
Ma ul
L ittle</w>
Jam es</w>
Issu e</w>
F el
En tre
Cr im
ver ified</w>
un believers,</w>
spec tac
sil ence</w>
ro ot
re ign</w>
present ly</w>
p ush</w>
p our</w>
om a</w>
nod al</w>
mann er,</w>
liv ing.</w>
it a,</w>
independ ence.</w>
imp ul
hor iz
f un</w>
del et
cover age</w>
country ’s</w>
chief s</w>
bet ter,</w>
aw are.</w>
ak ,</w>
advant ages</w>
Revi ew</w>
Retur n</w>
R ai</w>
R B
O .</w>
L P
Ass ess
wav es</w>
ward s,</w>
up grade</w>
ud ra</w>
u ed</w>
territ ories</w>
t ant</w>
system atic</w>
sym pathy</w>
rejo ice</w>
prev ention</w>
obedi ence</w>
nod es</w>
narr ative</w>
n ice</w>
ic on
hon est</w>
hi k
form ulated</w>
for ged</w>
enem y.</w>
dri ving</w>
dis able</w>
devo tional</w>
cap ability</w>
bu re
bas ically</w>
an and
Thir d</w>
Radhakrishn an</w>
Pun e</w>
J inn
Gujar at,</w>
F R
Conserv ation</w>
Coll ection</w>
Col lec
B ay</w>
well- being</w>
sugges tion</w>
star ted.</w>
retire ment</w>
rec over</w>
re porting</w>
leg acy</w>
ing ed</w>
in come.</w>
frequ ent</w>
esh war</w>
er ing,</w>
contin ent</w>
comp ul
blood .</w>
all i</w>
abund ance</w>
Wor ks</w>
Ta ur
S ort</w>
R e</w>
K en
Fr anc
8 5</w>
199 5</w>
“ Do</w>
your s</w>
w ip
w ash</w>
to bacc
seri ously</w>
sec tion.</w>
prin ce</w>
mer it</w>
help ful</w>
exc it
dis obey</w>
devo tees</w>
desc end</w>
c m</w>
bu m</w>
at ern
ar tis
an xious</w>
Territ ory</w>
Te a</w>
P ort
No te:</w>
Manil al</w>
En v
Brahm in</w>
Beli ev
B ad</w>
Asi a.</w>
3 9</w>
transparen cy</w>
ti e</w>
th al
st ressed</w>
sens e,</w>
sal v
res olu
qui et
oxy gen</w>
or g</w>
mos que</w>
link ages</w>
form ity</w>
dis tribute</w>
cros sing</w>
ass ure</w>
accord ed</w>
Spec i
Sha h
P aste</w>
N i
M en</w>
Independ ent</w>
Contin ue</w>
4 6</w>
stu ff
signific antly</w>
notific ations</w>
experim ent</w>
ea u</w>
dev i</w>
contro vers
char itable</w>
Pol l
M C
J od
In ternal</w>
ING S</w>
Cal i
9 5</w>
, .</w>
wom an,</w>
there of
tend ency</w>
spl end
requ ests</w>
real ity.</w>
padd y</w>
origin ated</w>
nec k
log ic</w>
jud ged</w>
fin ite</w>
equ ation</w>
en m
citi es.</w>
bloc ks</w>
af ore
abov e.</w>
Terror ism</w>
O ur
O R</w>
D own</w>
Asut osh</w>
195 0</w>
t ness</w>
sugg ests</w>
stre am
str ings</w>
slo pe</w>
qu er
prosper ous</w>
proc laim</w>
no se</w>
my ster
meas ure.</w>
learn ing.</w>
laug h</w>
land s.</w>
jun k</w>
int ensity</w>
individu al,</w>
ha d,</w>
ey e.</w>
es tr
ensu red</w>
ens e.</w>
cru ci
country men</w>
ch i</w>
bacter ia</w>
Tr ash</w>
T yp
T elec
Re ad
Q a
Pr at
M c
F inal</w>
F if
7 2</w>
wid es
vis itors</w>
ver ify</w>
un believer
tu r</w>
toge ther
to -
that ?</w>
th under
stri king</w>
sm il
roman tic</w>
ris es</w>
promo ted</w>
problem s,</w>
prec au
pre dec
pec uli
low ,</w>
loo k
inter val</w>
intellec tu
honour able</w>
has h</w>
expos ure</w>
des erve</w>
dec reas
cultiv ated</w>
T EN
Phil os
Parliam ent,</w>
Kann ada</w>
H e.</w>
F av
C TED</w>
C O</w>
Bo x</w>
B ea
5 2</w>
2 6,</w>
( your</w>
" )</w>
wif e.</w>
t all</w>
surg ical</w>
stead y</w>
sel ec
reg ion,</w>
pl ants,</w>
person ally</w>
or p
k ha</w>
evalu ation</w>
doub t.</w>
determin es</w>
de ploy
de ad.</w>
coo k
autonom ous</w>
ati ya</w>
as ion</w>
aband on</w>
Sikk im</w>
Produc tion</w>
M eas
II T</w>
Ham achi</w>
Fol der
Electr onics</w>
Commerci al</w>
Cha k
Bhut an</w>
virtu ous</w>
victim s</w>
tre es,</w>
transi tion</w>
toler ance</w>
telec ommun
sure ,</w>
sin ,</w>
rol ling</w>
repe at
re iter
no tify</w>
min ority</w>
m ould
ill ary</w>
frequ ency</w>
exp ensive</w>
em por
ed a</w>
dem and
chang ed.</w>
cell s.</w>
appro ached</w>
Syst ems</w>
St atistic
S cot
S aint</w>
N al
Mem o</w>
M ol
I ME</w>
Em pathy</w>
B ase</w>
At lan
Americ ans</w>
un divided</w>
spon sored</w>
publ ish</w>
polythe ists,</w>
pa ired</w>
obst in
mer ged</w>
less ons</w>
lad en</w>
igno red</w>
gram s</w>
even ing,</w>
em ia</w>
bl u
au to</w>
ang el</w>
alo g</w>
ag ents</w>
a x</w>
R ay</w>
P C</w>
Nicob ar</w>
M s</w>
Lord ’s</w>
J ad
E ,</w>
Cl assi
C od
Ar y
work ers.</w>
tyr ann
spr ings</w>
speed y</w>
speech .</w>
shoul der</w>
seg ment</w>
pr ud
mon th,</w>
ke y.</w>
ir respective</w>
h ect
er ?</w>
en sion</w>
dis semin
d res
circumst ances,</w>
ass isted</w>
ag enci
aff ecting</w>
Rel o
R as
Pur us
P P
May be</w>
M P</w>
H as
Depos it</w>
Dec ember,</w>
De ath</w>
Commission ,</w>
A WAR
0 4
var ying</w>
uni form</w>
tar get
t ari
sty le.</w>
struc tural</w>
ress al</w>
re ar</w>
objec tiv
i es:</w>
govern mental</w>
giv en.</w>
exerc ised</w>
den ial</w>
defin e</w>
de em</w>
cour t,</w>
comm erce</w>
cl ic
anc e
al :</w>
Uttarak hand</w>
Un fortun
Saro jin
Raj endra</w>
Pakist an.</w>
Nar ayan</w>
In fl
H en
Freed om</w>
F oc
Counc il.</w>
10 0%</w>
v is</w>
un ning</w>
though t.</w>
templ e.</w>
templ e,</w>
subjec t.</w>
st aying</w>
s mart</w>
s ati
r y
poin ting</w>
plant ation</w>
peculi ar</w>
parliam ent</w>
on going</w>
mat ches</w>
im age.</w>
friend ,</w>
fiel ds.</w>
ell s</w>
d ating</w>
capac ity.</w>
br ack
ar ch</w>
afford able</w>
Su k
Sa hi
S cro
Par am
Muhammad )</w>
Lo t</w>
Elec tric
Con vocation</w>
Addres sing</w>
(saying ):</w>
( not</w>
weal th,</w>
w as.</w>
spir it.</w>
serv ant
proceed ed</w>
por ters</w>
nation alist</w>
liv est
lic ense</w>
inev itable</w>
good s,</w>
friend .</w>
fr action</w>
equip ped</w>
equ itable</w>
cy l
an no
affair s.</w>
a ?</w>
V y
Sou thern</w>
S anj
Pr e</w>
H em
D ri
D D
D AT
9 th</w>
( unto</w>
' If</w>
up set</w>
symbol s</w>
rupe e</w>
rest .</w>
ra rely</w>
publ ishing</w>
paragrap h</w>
ne utr
infer ior</w>
inclu de:</w>
ic ing</w>
hind i</w>
enu es</w>
d %</w>
consid ers</w>
ass ign
as th
With draw
O k
Maharashtr a,</w>
Kis an</w>
Hindi ,</w>
H ill</w>
Con trac
Calcutt a.</w>
B J
Aurobind o</w>
treat y</w>
ti ci
sh oc
seas on.</w>
recommend ation</w>
prof it
m ood</w>
issu ing</w>
incl ined</w>
ex isted</w>
del icate</w>
dece ive</w>
chec ked</w>
char ging</w>
cam e,</w>
b utter
att a</w>
any thing,</w>
ak ar
ab ad.</w>
R ak
Pho to
Pan j
N aw
M ay,</w>
Himalay as</w>
Hear er,</w>
G old</w>
Ear ly</w>
2 .
( J
( December</w>
wor shi
tas k.</w>
stra ight
share holders</w>
sequ ently,</w>
rul e,</w>
psych ological</w>
post er
lik e.</w>
lic ence</w>
keep er</w>
is ?</w>
id en
hi er
grow th,</w>
fut ure,</w>
form s.</w>
fav oured</w>
colleagu es</w>
cast es</w>
aw n</w>
anci es</w>
am ple</w>
U ser
S RI</w>
Relig ion</w>
Mar y
K S</w>
H aj
F unc
E F
D NA</w>
Colum n</w>
Bet ween</w>
2016 ).</w>
- 19</w>
y nam
wid get</w>
us !</w>
un lawful</w>
res hold</w>
res ent
reli ef
pres tig
open ly</w>
oo t</w>
namely :—</w>
mo ther.</w>
legi timate</w>
j i.</w>
issu e.</w>
geni us</w>
econom ies</w>
differ enti
dev il
d ress</w>
ca p</w>
Wom en
Re al</w>
Pharao h,</w>
Nar as
IV E</w>
Ev ent</w>
Encryp tion</w>
Bra z
Bir th</w>
B lock</w>
00 0
- %</w>
( 1</w>
' ?</w>
v eter
the y,</w>
terror ism.</w>
sti pul
stat ue</w>
sh ut</w>
s ight
s add
resc ue</w>
po or
manufac tured</w>
libr aries</w>
join s</w>
im pose</w>
hos tile</w>
forward .</w>
fl oral</w>
fasc in
diplom atic</w>
design s</w>
comm and,</w>
cell aneous</w>
c um</w>
bur st</w>
bu ffer</w>
be e</w>
as ha
accompl ished</w>
a ’s</w>
Sub ha
Sha str
R ol
Pri y
Meg hal
Mar ath
M ,</w>
In stitutes</w>
G iv
trib un
stom ach</w>
st an
sp ot
pl ur
olog ist</w>
n est</w>
jour nal</w>
j um
hel per</w>
experim ents</w>
ession al</w>
err ors</w>
envis aged</w>
des ire
del ighted</w>
contex t,</w>
commit te
ch a</w>
Rest ore</w>
Oper ation</w>
Mark eting</w>
M B</w>
Le ban
Bur ning</w>
Ab u</w>
‘ O</w>
whol es
str ict</w>
shr ines</w>
repos itory</w>
reli able</w>
ran som</w>
pro xim
plac es,</w>
photo s</w>
o or</w>
magnific ent</w>
ju ven
intell ect</w>
im pressed</w>
hear ted</w>
exp ects</w>
em powerment</w>
di r</w>
concep ts</w>
au r</w>
ast on
arm ies</w>
appl ying</w>
Vaishn av
V P
U d
S truc
Re pe
Portugu ese</w>
Herit age</w>
God '</w>
CH E
C I</w>
0 6
z ation</w>
y stem</w>
wor ried</w>
vo ting</w>
ure d.</w>
un i</w>
tun e</w>
sem ination</w>
secre ts</w>
s ender</w>
ro pe</w>
r ational</w>
passeng er</w>
o dic</w>
mo tor
lea f
l ust
fund ament
exc use</w>
distingu ish</w>
comfor table</w>
bl ank</w>
astr onom
acknowled ged</w>
abl y,</w>
U sing</w>
RT I</w>
P L
Calcutt a,</w>
B him
" Indeed,</w>
tou ching</w>
sus pic
spir it,</w>
sev enty</w>
sculp tures</w>
s ain
room ,</w>
pl ay,</w>
ordin arily</w>
or ch
not ?</w>
ideas .</w>
hom age</w>
g est
fru its,</w>
fore most</w>
ev ent.</w>
emerg ence</w>
e ed.</w>
c up
bha i</w>
avail ed</w>
ass ess</w>
ann u
ag o
Tur n</w>
Soci alist</w>
Pharao h
Oc ean</w>
Import ant</w>
Ex pl
Committe e,</w>
Ab sol
4 3</w>
ys ore</w>
wret ched</w>
ure ;</w>
un t</w>
st air
spon tan
soci al,</w>
prec is
particular ,</w>
mo han</w>
liter ally</w>
int end</w>
indic ating</w>
ell ation</w>
elec toral</w>
bound ary</w>
blood ,</w>
arrang e</w>
an ian</w>
am pl
al ian</w>
abil ities.</w>
Viet nam</w>
Prin ter</w>
P ap
Ow ner</w>
No ah,</w>
M D
C av
Atlan tic</w>
Arab ian</w>
with drawn</w>
sym path
stret ch</w>
re pro
prais es</w>
pr o</w>
pion e
ph ot
pe p
oo d
obedi ent</w>
n an
inter nation
in direct</w>
hav en</w>
foun der</w>
en :</w>
dig es
di ble</w>
democrac y,</w>
de fi
cul t</w>
crim ination</w>
coun c
bi o</w>
b all
ag ro</w>
ab out,</w>
You Tube</w>
Trib es</w>
Pad ma</w>
L atin</w>
K ul
F DI</w>
Dat abase</w>
Committe e.</w>
Au thor</w>
wea pon
warn er.</w>
un like</w>
too th</w>
streng th.</w>
stre ets</w>
s' :</w>
recover ed</w>
re verse</w>
re tained</w>
p al</w>
negl ect</w>
me ets</w>
judici ary</w>
ig a</w>
hy m
em igr
ell a</w>
dis ast
cred enti
compu ter
c au
Vaishn ava</w>
Tran sp
T ig
Po resh</w>
Per son</w>
Mem orial</w>
Kashmir ,</w>
K a</w>
Giv en</w>
Cre ating</w>
2 2.</w>
198 6</w>
198 0</w>
16 th</w>
y ar
wisdom ,</w>
un preced
succ essive</w>
subsidi ary</w>
st ub
short age</w>
sc ore</w>
s land
prov ince</w>
pray ed</w>
lingu istic</w>
inher ent</w>
industri es,</w>
id le</w>
hab its</w>
fil e:%</w>
f illing</w>
f ati
ex ag
env elop
em ,</w>
el ess
discipl inary</w>
defici ency</w>
compar ison</w>
c en
bo died</w>
air .</w>
Vol ume</w>
Sing le</w>
Pro mp
N anal
Lord ?</w>
Intro duction</w>
Fr am
CT ION</w>
An al
.0 3
( which</w>
w ine</w>
w al</w>
upr ight</w>
tor s.</w>
sur prise</w>
s ham
n igh</w>
hand led</w>
group s,</w>
for ts</w>
edi tion</w>
dru m</w>
cros s
ass istant</w>
an ks</w>
alleg ed</w>
ac tion
Y O
S and
Rec om
Micha el</w>
M W</w>
G all
C as
Bihar ,</w>
An ti
An cient</w>
Americ a.</w>
A ri
wel f
store s</w>
sm all,</w>
s —
rul es.</w>
right s,</w>
re vive</w>
practi sed</w>
pr ou
pl un
pen is</w>
pa ths</w>
ori entation</w>
oper ations.</w>
on e-
liber ation</w>
li abilities</w>
l ights</w>
l ighting</w>
k ar,</w>
it !</w>
gri ef
gener ation.</w>
g aining</w>
ec os
dest ined</w>
construc tive</w>
cir cl
chem icals</w>
at tribut
any body</w>
al izing</w>
ad ds</w>
Wel come</w>
U m
SPEE CH</w>
Pre et</w>
P DF</w>
No tice</w>
J ab
GRE ET
Cer tific
Bab a</w>
veget abl
updat e:</w>
un iversi
tu res
tre es.</w>
tol d,</w>
ti a</w>
sev enth</w>
pen it
ot i</w>
on %</w>
nur sing</w>
net works</w>
hon or
head quarters</w>
ex hibition</w>
cre ature</w>
cos mic</w>
b i</w>
assur ance</w>
anim als,</w>
Th is,</w>
TO MOR
TOMOR RO
T asks</w>
Sw am
S qu
S ach
Rec ogn
N iz
Mes si
L a</w>
G row
Fol ders</w>
Egyp tian</w>
E le
Can ada</w>
Allow ance</w>
Al ex
writ es</w>
way ?</w>
thin k,</w>
ther et
streng th,</w>
sci ence.</w>
s ic
s ',</w>
re payment</w>
po et,</w>
no te
los ses</w>
lif t</w>
lef t,</w>
gur u</w>
forc es.</w>
ep id
en ni
e at.</w>
divis ions</w>
convic tion</w>
conc eption</w>
commit ting</w>
cha se</w>
at us</w>
an '</w>
adul ts</w>
Vicer oy</w>
Un less</w>
Ram al
Organ is
Offic er,</w>
Ob jec
Inst ead</w>
F at
Cop yright</w>
Be z
Ay od
Augu st,</w>
5 6</w>
17 th</w>
" When</w>
‘ We</w>
wor m</w>
ut e,</w>
tex tile</w>
stor y,</w>
sk in.</w>
r ation
pursu ance</w>
practic es.</w>
plan et</w>
or r
lin es.</w>
lik es</w>
leav e.</w>
in coming</w>
im mor
ick en</w>
great ness</w>
forgiv es</w>
fin est</w>
fer til
facilit ating</w>
el der
e tic
den se</w>
co ins</w>
cha st
appear ing</w>
al together</w>
Vir tual</w>
Thom as</w>
Qur ’
Mak k
In dra</w>
Han uman</w>
Del eg
D ad
CH ES</w>
Antar c
( Prophet</w>
utiliz ation</w>
ul i</w>
tr y
ti red</w>
terror ism,</w>
rich es</w>
respec tively</w>
rep utation</w>
ref und</w>
rain fall</w>
r ing
preserv ation</w>
pre domin
plan t.</w>
p anc
min i
man power</w>
indi an</w>
gu m</w>
gr ain
gar ments</w>
g ang
et ting</w>
er ial</w>
cor n
conven ient</w>
comp elled</w>
ci es</w>
b ord
b idd
av ar
an ;</w>
air ports</w>
air ,</w>
W i
Sup pl
St ation</w>
Res ear
Ram an
Men on</w>
Lat er,</w>
F al
Dis tribution</w>
Des ign
Ar jun
( other
v an</w>
un grateful</w>
t enth</w>
sur plus</w>
reserv ation</w>
preced ed</w>
possibil ities</w>
pop up</w>
peri ph
pain ted</w>
p has
onym ous</w>
off spr
n emat
mod es</w>
m ik
lo ving</w>
liv er</w>
life ;</w>
lea ther</w>
h ell,</w>
exp on
emb ed
el d
decis ion.</w>
cocon ut</w>
clear ance</w>
b old</w>
aut o
Sarojin i</w>
Per man
Ori ya</w>
L iv
K i
GO VER
Fil m</w>
6 8</w>
trad e,</w>
tor n</w>
t ears</w>
system s,</w>
sur prised</w>
s ".</w>
ro of
reflec t.</w>
receip ts</w>
ous ed</w>
moun ted</w>
mind ed</w>
mak ers</w>
m in</w>
m idd
him self
he ights</w>
gu arded</w>
god s,</w>
g ender</w>
fre e
frag ment</w>
ever lasting</w>
differ ent.</w>
dem and.</w>
d am</w>
ass ign</w>
administr ation.</w>
W ord
Tor ah</w>
Sh ank
Rec ru
O x
G ok
F our
Exam ination</w>
Ever lasting</w>
Doc uments</w>
Commun ication</w>
CO MM
Alm ast</w>
9 1</w>
2 %</w>
( We</w>
war ran
unci ation</w>
til ,</w>
righte ousness</w>
public ations</w>
produc t.</w>
out look</w>
n a,</w>
modi f
mis lead</w>
merci ful</w>
m amm
is '</w>
in com
i. e.</w>
heed less</w>
go ,</w>
gener ations.</w>
fl am
fed eral</w>
disobe yed</w>
dis pers
bre ed</w>
as le
al lies</w>
age ous</w>
afflic tion</w>
a ha</w>
EN CE</w>
Cel ebr
9 0
7 4</w>
zz le</w>
y ]</w>
ther ef
sh o
self- reli
s nat
s lip</w>
s essions</w>
rem itt
record .</w>
qu ery</w>
produc er</w>
problem ,</w>
privileg ed</w>
poss essions</w>
pharmac eu
p oul
marg inal</w>
lar va
incl usion</w>
ik et
idden .</w>
fl ame</w>
earn ed,</w>
dis rup
di e.</w>
corrup t</w>
cam p</w>
air craf
Tool s</w>
Sh ankar</w>
Sett lement</w>
Ram ay
Pe ti
N ight</w>
Lab el</w>
K ut
I L</w>
Govern ment
G RA
Fund s</w>
Common wealth</w>
A ID
8 00</w>
z oom</w>
wides pread</w>
whol e.</w>
wal ks</w>
vill age,</w>
valu ed</w>
temper at
sur vive</w>
sul ph
so on
situ ations</w>
s ide
roc ks</w>
rid ge</w>
recomp ensed</w>
qual ity.</w>
qu et</w>
oy s</w>
off ,</w>
meas uring</w>
infrastruc ture,</w>
in complete</w>
hu b</w>
heav ily</w>
heav en
he ight
ec tor</w>
config ure</w>
clust er</w>
b es</w>
aband oned</w>
a %</w>
T eh
Sust ain
Semin ar</w>
S lov
Phys ical</w>
PAR T
Mo on</w>
Ital ian</w>
Gr and
Gam es</w>
Fed eration</w>
Educ ational</w>
Dra w</w>
C ov
Al tern
Afric a,</w>
2015 ).</w>
201 3
( remember)</w>
where by</w>
vis u
th ick
t ons</w>
t able.</w>
sub trac
l end</w>
gre eted</w>
gener ic</w>
found ing</w>
eth ical</w>
e i
dis gu
depri ved</w>
comp ut
co ordination</w>
caus e,</w>
bir th.</w>
an tic</w>
Wiki pedia</w>
Sha itan</w>
S ult
LE CTED</w>
Indi a)</w>
E L
Ass am,</w>
Accoun t
6 6</w>
195 7</w>
( 10
“ He</w>
wr it</w>
understand ?</w>
ul ent</w>
tw o-
thin k
terror ists</w>
surv iv
sum mar
st ation
sol ving</w>
rit i</w>
quar rel
os si
og y</w>
met ers</w>
m uc
larg e,</w>
infl ammation</w>
il e,</w>
id ate</w>
grap hic</w>
gr ant
fol i
ex tract</w>
eigh th</w>
bro k
behavi or</w>
beh ind,</w>
back up</w>
b ic
ast ,</w>
asa heb</w>
ar as</w>
al i,</w>
Ver sion</w>
S ports</w>
S ending</w>
Parad ise,</w>
L ow</w>
L abor
J ava</w>
It ems</w>
G ab
Forc es</w>
Fa ther</w>
Colleg e,</w>
COV ID
C ut</w>
C RA
.0 6
w .</w>
viol ence,</w>
v ice</w>
trav el
si k
ro pol
prot ocol
prog en
practic ally</w>
phy si
op pose</w>
ol er
o il
m a.</w>
h em
gif ts</w>
gent lem
expl ore</w>
etc. ),</w>
ers ."</w>
er s:</w>
dread ful</w>
discipl es</w>
di d,</w>
cre ativ
condol ences</w>
cent ,</w>
burn t</w>
br on
bil li
ar t,</w>
ak k
adminis tered</w>
acqu iring</w>
T aj
Sign ature</w>
R ight
Pat na</w>
PA Y
P ain
O mitted</w>
Mos que</w>
J ubilee</w>
Inspec tor</w>
Fin ally,</w>
F I
Con sol
Az ad</w>
(2 ),</w>
wat ched</w>
vic tim</w>
transl ations</w>
tax .</w>
suspend ed</w>
ound ing</w>
oblig ations</w>
nutri tion</w>
numer able</w>
negl ected</w>
mon opol
mis fortune</w>
k ap
iti c</w>
institu tion,</w>
fra ud
fost er</w>
folder :%</w>
enm ity</w>
em en</w>
diam onds</w>
decad es,</w>
challeng ed</w>
ber t</w>
bat ch</w>
are n</w>
Tru th.</w>
T ak
S is
Promp t</w>
M ysore</w>
Key board</w>
Cric ket</w>
200 0,</w>
0 7</w>
$ 1%</w>
worth y.</w>
word s:</w>
trad e.</w>
thor oughly</w>
sug ar
struc ture,</w>
st ing</w>
sh alt</w>
scrip tures</w>
s ):</w>
respond ed</w>
r ation</w>
r ak
process or</w>
pl ains</w>
perc eption</w>
mag nit
los ing</w>
leaf let</w>
j ee</w>
institu ted</w>
extre mis
est e
crop s.</w>
co in</w>
bu y
b at</w>
at tributed</w>
am en
ah .</w>
Mumb ai.</w>
Keral a,</w>
G a
Ex pend
Entre preneur
Des h
De ep
.0 7
.0 4
un usual</w>
succ ession</w>
substanti ally</w>
socio- economic</w>
ro oted</w>
r ough</w>
r ating</w>
p raised</w>
organis ation.</w>
on ia</w>
mort gage</w>
mon soon</w>
medic ines</w>
mean s,</w>
liber ty</w>
li tig
j inn
impres sive</w>
ill ustri
hear s</w>
fol k
ep .</w>
colum n
birth day</w>
b inary</w>
b ath
an at
after wards</w>
W IT
U SA
Tha k
Su fficient</w>
St ock</w>
N ation</w>
Lol ita</w>
Chin a.</w>
198 9</w>
197 6</w>
( September</w>
under go</w>
uc tu
treas ures</w>
term s.</w>
templ ate</w>
t ail
subst ances</w>
sub tle</w>
s itt
re viewed</w>
person s,</w>
perc us
non- resident</w>
no twithstanding</w>
mater nal</w>
inc umb
gall ery</w>
foo ds</w>
est s,</w>
encompass es</w>
dis d
dev il</w>
consu me</w>
colum ns</w>
au th
apparen tly</w>
agricul ture.</w>
Sahi b</w>
O be
N C
Mast ers</w>
LE S</w>
HO ST
Gr an
Fir st,</w>
Farm ers</w>
2 9,</w>
199 4</w>
y an
weal th.</w>
ver si
truth ;</w>
tre ach
t age</w>
soul s,</w>
s al</w>
ru ined</w>
rid ing</w>
perfec tly</w>
o ting</w>
my stic
mi um</w>
m iti
lef t.</w>
k an
isol ated</w>
interpre t
int ends</w>
g on
g er.</w>
firm ,</w>
enn ial</w>
dev ice.</w>
cul tures</w>
comm end
centur ies.</w>
bel oved</w>
ban ks.</w>
attemp ted</w>
ak h</w>
adjust ment</w>
ab i</w>
Til ak</w>
P ass</w>
Nov ember,</w>
G hat
Europ e,</w>
Enter prises</w>
Coun ty</w>
Cir cular</w>
3 8
( evil
“ a</w>
ti ger</w>
that '</w>
stric tly</w>
smo ke</w>
s ”
renow ned</w>
re di
r andom</w>
promis e.</w>
pati ent,</w>
otechnolog y</w>
j ute</w>
immedi ately.</w>
house holds</w>
griev ance</w>
f lies</w>
ession .</w>
distric t,</w>
d oom</w>
consul t</w>
c abinet</w>
bre ath</w>
atic s</w>
app a</w>
acquain ted</w>
Sept ember,</w>
R iver
Pr ice</w>
O thers</w>
Mong ol
Karnatak a,</w>
Gujar at.</w>
Ele ph
Counc il,</w>
An im
7 00</w>
(2 3
sup pose</w>
sk elet
reve als</w>
re hear
prec ise</w>
p ock
ou ted</w>
milit ant</w>
ment ed</w>
m es
har ass
grass roots</w>
fil e:</w>
er ving</w>
enthusi asm</w>
ent :</w>
en um
conscious ness,</w>
conf used</w>
brother s,</w>
borrow ed</w>
bom b</w>
Stud y</w>
S ir
N G
K umb
K i</w>
In form
Hist or
Goo ds</w>
D C</w>
Christi an
Appoint ment</w>
A tal</w>
.201 2</w>
} %</w>
{PRODU CT</w>
vulner able</w>
view ing</w>
up dates</w>
unfortun ate</w>
tr ash</w>
the e.</w>
th ;</w>
strik es</w>
sec t</w>
scienti st</w>
ri x</w>
rev ival</w>
plan .</w>
orthod ox</w>
o :</w>
neigh bor
mo de
mat ter
jewell ery</w>
ion :</w>
ind ication</w>
ho l</w>
g ul
fr atern
fe as
ext inc
dis crimination</w>
devo id</w>
c able</w>
blow n</w>
best .</w>
administr ator</w>
X X
T ow
S overe
Gand har
Chin a,</w>
Cast es</w>
B us</w>
" Have</w>
wand ering</w>
vehic les</w>
tech nic
surg ery</w>
spectr um</w>
sp her
situ ation,</w>
s ”.</w>
reg istr
prohib ited</w>
popular ity</w>
pl ate</w>
n es
lif est
laun ching</w>
is ed.</w>
ing redi
farmer s,</w>
f iscal</w>
dis cer
desi re,</w>
depic ts</w>
criter ia</w>
char ity,</w>
ch at
bel ow
ass imil
amend ments</w>
agre ement.</w>
Withdraw al</w>
Rece ip
Partner ship</w>
In do
Him ).</w>
High light</w>
Fa ith</w>
C ross</w>
B ind
Appe al
A. D.</w>
2 5.</w>
tr o</w>
t s:</w>
t ing,</w>
sw allow</w>
sp are</w>
shor t,</w>
rest ored</w>
respec ts</w>
rebelli ous</w>
privileg es</w>
premi er</w>
over took</w>
out side.</w>
ne uro
mari time</w>
magaz ine</w>
ic ted</w>
fore ver</w>
exp ens
depar ture</w>
de pl
cul min
creat ures.</w>
cr ash</w>
config ured</w>
con tributing</w>
as und
any thing
a we</w>
Web site</w>
Sur ya</w>
Si x
P H
Nu h</w>
N ur
Mem or
Dra ft</w>
Ac tu
A mar
30 th</w>
3 1,</w>
200 7,</w>
197 4</w>
" Did</w>
work ing.</w>
ver ,</w>
ty ;</w>
tra ffic
tissu es</w>
through %</w>
sid es,</w>
sec on
prot est</w>
plac ing</w>
phenomen on</w>
mach ines</w>
k m.</w>
inv ent</w>
inst al
hon or</w>
high light</w>
guardi ans</w>
good will</w>
gen es</w>
facil ities,</w>
f ar,</w>
every day</w>
embar r
ear ,</w>
eag er</w>
drin k
conv ocation</w>
con firm</w>
benefici aries</w>
be ings.</w>
applic ations.</w>
al um
al ter</w>
aff ili
VISI T</w>
Sch ol
Pa th.</w>
La un
He bre
C B
Bomb ay,</w>
Bless ed</w>
7 7</w>
( if</w>
stat us
ship s,</w>
sh ine</w>
se aled</w>
ritu als</w>
resp ected</w>
prov inc
profession als</w>
prison ers</w>
prev ents</w>
mod est</w>
mang o</w>
mag istr
jus tified</w>
interc ession</w>
install ed.</w>
inher ited</w>
ing ent</w>
gri d</w>
form s,</w>
enlight ened</w>
employ ment.</w>
elimin ate</w>
el :</w>
e th,</w>
consec utive</w>
compan ies.</w>
commun ities.</w>
bo ast
awa it</w>
anc y.</w>
U K</w>
Tradi tional</w>
Pr inc
Par is</w>
N eg
Let ter</w>
Jour nal</w>
Hindust ani</w>
Electric ity</w>
Develop ment,</w>
B eh
Arch itec
whil st</w>
week ly</w>
was n</w>
ut e.</w>
un its.</w>
trav ag
tradi tion.</w>
stri p</w>
ro tation</w>
rec alled</w>
r ush</w>
pur i</w>
pow der</w>
oper ated</w>
occur ring</w>
no thing.</w>
mir ror</w>
membran e</w>
g au
freed om,</w>
f ond</w>
excep tional</w>
e b
dut y.</w>
du ci
disobedi ence</w>
dial og
den ies</w>
dat abas
cod ing</w>
classi fication</w>
cham ber</w>
butt ons</w>
busin esses</w>
bo ard.</w>
attrac tion</w>
am y</w>
adv ancement</w>
[ i.</w>
Shar ma</w>
SE LECTED</w>
Rajasth an,</w>
Proph ets</w>
Op ening</w>
Mod ule</w>
Indi ans.</w>
H IV</w>
F on
Dis p
Bur n</w>
BI HAR
Aar on</w>
AT AL</w>
w et</w>
ver sions</w>
th um
super sti
stra it
sk et
sha ke</w>
separ ately</w>
righteous ness,</w>
opportun ities.</w>
oo d.</w>
on :</w>
nov er</w>
ment ation</w>
memor y.</w>
meas ure,</w>
mar ble</w>
man ual</w>
low .</w>
litt le.</w>
inste ad.</w>
ing ."</w>
ind ex
grati tude</w>
f ung
es "</w>
en ess.</w>
den ying</w>
col ours</w>
chea p</w>
be g</w>
aus e,</w>
appe als</w>
Prev ention</w>
woo d,</w>
v e.</w>
tradi tionally</w>
tomor row.</w>
tel e
suppl ies</w>
strong ,</w>
stret ched</w>
pul led</w>
pr one</w>
pay ment.</w>
mer chand
mar tyr
lov ely</w>
langu ages,</w>
l it</w>
inv iting</w>
ind a</w>
ig rate</w>
hell .</w>
h ate</w>
good ness</w>
eas y.</w>
ear .</w>
deduc ted</w>
decad es.</w>
d airy</w>
cu ts</w>
conf usion</w>
comb in
clim atic</w>
cam p
bre ed
bre ad</w>
b are</w>
aver t</w>
as tic
accoun ts.</w>
Where fore</w>
Ther eafter</w>
Ter m</w>
Ru pe
Py thon</w>
Per f
Panchay at</w>
N on-
Dev anag
Cal cul
Brah man
Arch ive</w>
Adv oc
8 1</w>
( e.</w>
( Abraham
' What</w>
w ali</w>
vari es</w>
trop ical</w>
sup er</w>
sub stitut
sel ler</w>
sel ecting</w>
rais al</w>
publ ish
plan ted</w>
perform ance.</w>
observ ation</w>
ob li
mirac les</w>
m ing
list ened</w>
la va</w>
imp ug
i i)</w>
her ed
help ed.</w>
h ow
gl es</w>
er '</w>
embed ded</w>
distur bed</w>
dignit aries</w>
desi res,</w>
d ub
co al
clo thing</w>
capit al.</w>
akr ishn
Vr ind
VA J
Shi k
S an</w>
S add
Per form
L if
L D</w>
Im per
D ak
Commission .</w>
Answ er</w>
Ac t
( Appeal
veget able</w>
unc le</w>
ul ous</w>
tou ches</w>
sc roll</w>
right ful</w>
recru itment</w>
r ase</w>
qual ity,</w>
program .</w>
pal ms</w>
ov en</w>
offic e,</w>
negoti ations</w>
necess ary,</w>
li es.</w>
li b
leg ally</w>
in o</w>
hom es,</w>
hi p</w>
f od
ex travag
ex hor
ement ;</w>
dr ought</w>
cor ners</w>
cop per</w>
consider ably</w>
comp ound</w>
as por
as :</w>
You ,</w>
Pl ac
NIO S</w>
N ,</w>
Mis sing</w>
Europe ans</w>
B ody</w>
Americ a,</w>
A bo
13 th</w>
(Muhammad )</w>
( He</w>
" Lord,</w>
unpreced ented</w>
trad ers</w>
sla in</w>
r ains</w>
pers ever
or i</w>
k a
fulfil ment</w>
fiel d,</w>
exist ence,</w>
es ."</w>
dollar s</w>
compl iment</w>
c ub
b ed.</w>
ag e;</w>
ab out
a head.</w>
Un i
Shak ti</w>
ST R
S ound</w>
S AR
Pakist an,</w>
Nagal and</w>
Mach ine</w>
L ec
K un
I gn
H u
H ence</w>
Gu ard</w>
G DP</w>
Fig .</w>
Dou ble</w>
Ann iversary</w>
198 8</w>
' the</w>
um ps</w>
su me</w>
sp here</w>
sh ore</w>
satisfac tory</w>
s lip
rit es</w>
quanti ties</w>
pursu ing</w>
pray er
pleas es</w>
per forms</w>
peopl e;</w>
orph ans</w>
ore d.</w>
op tion
minis try</w>
hang ing</w>
g op
el o
dis close</w>
desc end
cre ated,</w>
cor n</w>
construc t</w>
ce iling</w>
bar ren</w>
ar ama</w>
Z alim
U P</w>
Sh u</w>
R os
PRESIDENT ’S</w>
Mauriti us</w>
Cal end
C row
Brahm o</w>
Ad am,</w>
Acc es
A ge</w>
200 1,</w>
14 th</w>
00 0.</w>
(B )</w>
z ak
wrong doing</w>
ti ful</w>
thir ds</w>
termin ation</w>
some where</w>
sid ed</w>
shir t</w>
server s</w>
sec ts</w>
sa il</w>
re vers
prejud ice</w>
pregn ancy</w>
plac ement</w>
pa thetic</w>
p oured</w>
p it</w>
p ad
maj or
land s,</w>
it ations</w>
inst ant</w>
inf ected</w>
fund s.</w>
fear ing.</w>
ev ents.</w>
em peror</w>
do zen</w>
di a</w>
compar atively</w>
car to
book mark</w>
ation s;</w>
ari .</w>
amoun t.</w>
al read
Vic e-
S kill</w>
Relo ad</w>
Prov incial</w>
P ud
Kol hat
Fed eral</w>
C isco</w>
B y
B order</w>
' ;</w>
thre e,</w>
ship s.</w>
rest aur
plan ting</w>
pil ot</w>
ness ;</w>
met er</w>
inter vention</w>
inten si
inst ances</w>
ing '</w>
hor ses</w>
hom es.</w>
hol low</w>
go al.</w>
gent le</w>
four teen</w>
flow .</w>
flo ating</w>
f it
ex pel</w>
employe es.</w>
effor ts.</w>
ear ing</w>
dwell ings</w>
docum ent
distric t.</w>
b und
b har</w>
aff lu
abl y.</w>
Ved a</w>
Simpl e</w>
Set ting</w>
Registr ar</w>
R i
K har
H IS</w>
Guar an
Gan esh</w>
Cro ati
Char les</w>
4 9</w>
16 .html</w>
0 8</w>
(ह ँ
( g
wrong do
wid ow</w>
whis per
wee k.</w>
speci es.</w>
speci alized</w>
sleep ing</w>
sha me
scal e.</w>
river s,</w>
remem ber.</w>
refl ection</w>
qu e,</w>
perm its</w>
n ant</w>
lec tures</w>
l ump</w>
inqu iry</w>
form ally</w>
fore fathers</w>
fing ers</w>
fabric ated</w>
expres sions</w>
encryp ted</w>
draw s</w>
demonstr ated</w>
def ec
d ensity</w>
certain ty</w>
c ure</w>
c eased</w>
bro ther.</w>
boun ds</w>
bl ank
bet ter
b unch</w>
al ise</w>
a th,</w>
Vaj payee</w>
VAJ PAY
T ali
Sear ch
Sci ences</w>
Poll ution</w>
Li ke
F C</w>
Every thing</w>
Crim inal</w>
Cham pion
C ash</w>
Beli eve</w>
Austr ali
Al most</w>
Ag ain,</w>
8 8</w>
6 2</w>
200 8,</w>
" Allah</w>
’ ble</w>
{PRODU CT
v ap
thank ful.</w>
tack le</w>
success ors</w>
str ayed</w>
spea k
sp ades</w>
requ iring</w>
rang es</w>
p es</w>
mark ets.</w>
li ps</w>
inv ari
institu tion.</w>
imp etus</w>
ight y.</w>
id ol</w>
he ir</w>
hav e.</w>
h all
gen e</w>
f ancy</w>
end ranath</w>
en ant</w>
e th.</w>
e on</w>
coff ee</w>
chron ic</w>
can v
bir ds,</w>
be at
be )</w>
as ed</w>
Zalim un</w>
Vidy as
Univers al</w>
T aking</w>
T T
St yle</w>
S E</w>
Palestin ians</w>
Fur ther</w>
EE :</w>
C ave</w>
Ah med</w>
9 8</w>
5 4</w>
201 5.</w>
.. ....</w>
' You</w>
‘ I</w>
{ 2
you )</w>
vo ices</w>
tre ating</w>
sur face.</w>
see ker</w>
sec ular
relig i
rehabil itation</w>
plan ,</w>
pand em
p ushed</w>
p om
occup y</w>
obe yed</w>
moc k</w>
ment ally</w>
institu tion
imper ative</w>
gl imp
every where</w>
eat en</w>
div in
d ying</w>
clear ing</w>
ac re</w>
Transl ation</w>
Re tri
Multi ple</w>
Institut e,</w>
Gr ant</w>
De v</w>
D H
Brah man</w>
Bihar .</w>
Bhar atiya</w>
BJ P</w>
B ak
Austr alian</w>
An imal</w>
4 ).</w>
1 10</w>
( 7)</w>
ver .</w>
ur i</w>
un expect
u ted</w>
tou ch
tobacc o</w>
su ch,</w>
sha k
sel l
s enti
s ed
part y,</w>
p i</w>
organiz ing</w>
o z
mechan isms</w>
invest ment.</w>
inc ub
hun ting</w>
g han</w>
ful ly,</w>
exemp tion</w>
en larg
eleph ants</w>
ear s.</w>
dro pped</w>
dist ressed</w>
dea ths</w>
d ried</w>
cust ody</w>
complet ing</w>
comp utation</w>
commun icate</w>
collec tions</w>
char t</w>
canc eled</w>
adv ice.</w>
ab use</w>
SPEE CHES</w>
Regis ter</w>
P layer</w>
O S</w>
N y
Iraq i</w>
Indi vid
Con duc
A C</w>
201 9</w>
12 0</w>
wild life</w>
weap on</w>
we ep</w>
w ,</w>
un grateful.</w>
tongu es</w>
th us,</w>
sper m</w>
spac es</w>
siz e.</w>
sh ining</w>
sam ple</w>
ru in</w>
re paid</w>
promis ing</w>
p ets</w>
nam es.</w>
iz ed.</w>
independ ence,</w>
hu n</w>
heav ens,</w>
ham ed</w>
fish er
fe ud
fe et,</w>
entertain ment</w>
encryp tion</w>
en ame</w>
ed iting</w>
earn ed.</w>
do or.</w>
divid ing</w>
det eri
comp iled</w>
aes thetic</w>
W H
UT s</w>
Termin al</w>
Swar aj</w>
SH TRA
Rec ord
Re ading</w>
R )</w>
N iv
M ec
Kore an</w>
Ham as</w>
Gr ace</w>
Chan nel</w>
Buddh ism</w>
Bl ue</w>
B E</w>
Are as</w>
An ti</w>
.0 2
&amp; T</w>
vis ion.</w>
tic ket</w>
sure .</w>
some how</w>
sol ely</w>
siv e,</w>
shoo t</w>
sha me</w>
re fr
pet roleum</w>
perce ived</w>
o )</w>
mon uments</w>
meas urement</w>
marri age,</w>
m ation</w>
lo om</w>
limit ations</w>
j eal
iden tical</w>
ic ons</w>
experi ence,</w>
error ,</w>
dedic ate</w>
cor p
compl y</w>
col lap
bur ied</w>
broad cast</w>
borrow er</w>
bar red</w>
ativ es,</w>
ass es</w>
al o</w>
[ for</w>
There in</w>
T ree</w>
Sab ha
Requ est</w>
Qu ar
Prog ress</w>
Prad han</w>
Keral a.</w>
Ja ipur</w>
Ish ma
H ouse
Emer g
Chhattis garh</w>
Asi a,</w>
Appl ic
Ahmed abad</w>
ATIO NS</w>
2 1.</w>
( men)</w>
( Sat
" Then</w>
writ ing,</w>
vis ion
ure r</w>
tel ephon
t e,</w>
struggl e.</w>
st am
sp ots</w>
sel fl
quan tit
projec t,</w>
pass word.</w>
osph ere</w>
om ination</w>
mus cles</w>
mon ey
mess age:</w>
mean s.</w>
me tic</w>
lec ture</w>
kind ness</w>
insul t</w>
gu est</w>
domin ated</w>
dis playing</w>
destin y</w>
d ;</w>
correspond ence</w>
cat aly
atten tion.</w>
anc e:</w>
allot ment</w>
Vij ay</w>
VAJPAY EE:</w>
Tru ly</w>
Taur at</w>
Swit zer
St aff</w>
Rob ert</w>
R ash
P UB
Mus ic</w>
Jes us
Jerusal em</w>
Group Wise</w>
Febr uary,</w>
CAL LS</w>
CAL L</w>
Bez bar
BIHAR I</w>
B HAV
An gl
war i</w>
veget ation</w>
ve il</w>
ve dic</w>
stat es,</w>
pro longed</w>
poss ess
ould st</w>
mand ate</w>
is ance</w>
ins ight</w>
ine a</w>
incid ence</w>
gam e.</w>
fer v
exp elled</w>
ex alt</w>
et er</w>
er os
end ur
el ementary</w>
e or
dec ides</w>
cri tics</w>
clust ers</w>
c ows</w>
c .</w>
bo th,</w>
b ind</w>
autom ob
a ided</w>
UT F</w>
Them e</w>
Swach h</w>
S ap
Out look</w>
Messeng ers,</w>
Him ?</w>
Gandhi .</w>
Exc ise</w>
( who</w>
िय ा
tur nover</w>
t ale</w>
smo k
sign ing</w>
short cut</w>
s aints</w>
regard .</w>
ra j</w>
pur ified</w>
prep are
pos itiv
popul ation,</w>
ong ,</w>
mun icipal</w>
miner als</w>
mar king</w>
itt ed,</w>
infrastruc ture.</w>
ill umin
help ,</w>
happ y.</w>
enough .</w>
enlight en
en coun
cul p
coo ked</w>
conflic ts</w>
chi ev
bl ind,</w>
belief ,</w>
b udd
at tributes</w>
assum ing</w>
am bar
altern ate</w>
accel er
Wee k</w>
U t
S mart</w>
S W
P ,</w>
Nanal al</w>
L ock</w>
Institu tion</w>
I g
E state</w>
De bug
D han
Chec king</w>
7 8</w>
( IC
wiv es,</w>
war ming</w>
trust ,</w>
the ast</w>
subscri ber</w>
square d.</w>
ril lic</w>
re tribution</w>
pro jected</w>
prev enting</w>
pleas ing</w>
phys ically</w>
only )</w>
ness es</w>
mon ast
ist ence</w>
ins isted</w>
in hab
illustri ous</w>
happin ess.</w>
gu arding</w>
dic tionary</w>
com es,</w>
c us</w>
belief s</w>
b red</w>
ar row</w>
announc ement</w>
advoc ate</w>
To :</w>
T ,</w>
Ref in
Re forms</w>
R ole</w>
Program mes</w>
Phil ipp
P rav
N everth
Kit tur</w>
H un
H o
Europ e.</w>
C II</w>
10 %</w>
0 s</w>
( such</w>
work ers,</w>
ves sel</w>
to k
thre e.</w>
success or</w>
su ited</w>
scholar ship</w>
requ isite</w>
pix els</w>
ou tr
ou ting</w>
not ;</w>
lo ver</w>
kno c
introduc ing</w>
im mer
if f</w>
har ,</w>
handic raf
h ub
found ations</w>
es e,</w>
embr ace</w>
earn ings</w>
differ ed</w>
det ection</w>
d or
congrat ulations</w>
con tribut
compati ble</w>
can .</w>
bound aries</w>
bo x.</w>
batt le
ay s.</w>
abstr act</w>
W ise,</w>
UN ES
Ser ial</w>
PAT I</w>
Na id
Mas j
Jod h
Grad u
Distr ic
Conn ect</w>
C a
Assess ment</w>
9 6</w>
14 .html</w>
(ii i
प ्र
z e
viol ation</w>
typ ically</w>
top ics</w>
some thing,</w>
soci alist</w>
sis ters,</w>
rul es,</w>
righte ously</w>
relev ance</w>
public ity</w>
proper ly.</w>
present ing</w>
pa id.</w>
opin ion,</w>
ome try</w>
n essing</w>
mus cl
mur d
ment ?</w>
kil o
inter ference</w>
impos ing</w>
hospit ality</w>
gri m</w>
ession ,</w>
end uring</w>
em per
doub ts,</w>
dis cour
der ive</w>
depic ted</w>
challeng ing</w>
cha n</w>
ch al
cent re.</w>
calam ity</w>
blis s</w>
bel l</w>
be asts</w>
appl i
alo gue</w>
Venk at
V an
UN IVER
Summ ary</w>
Rel ations</w>
RA SHTRA
Philos oph
L am
L S
H ast</w>
Back up</w>
B .
Ar m
Allah ]</w>
A tom
15 0
(हँ सी)</w>
wr apped</w>
th en.</w>
ter ior</w>
tak en.</w>
sust ain</w>
suppl i
solem n</w>
sion al</w>
sentim ents</w>
scrip tion</w>
res on
read ily</w>
promp ted</w>
me !</w>
light ning</w>
lead ers,</w>
k al</w>
itt a</w>
fertiliz ers</w>
fail ed:%</w>
er ad
er -
drin k,</w>
dis course</w>
charac ter,</w>
boo t</w>
ar tic
ac res</w>
War ning</w>
War n
Ur du
Trib al</w>
Spl it</w>
Sp ac
Rom an</w>
Pro file</w>
J an</w>
ES S</w>
Det ermin
Ch er
2 ).</w>
0 0,</w>
umb n
tren ds</w>
tion er</w>
ti ge</w>
ten ure</w>
sw if
strateg ies</w>
siz e,</w>
reci proc
real istic</w>
projec ts,</w>
pray er.</w>
potenti al.</w>
over take</w>
od es</w>
man i
lif ted</w>
l ever
k ids</w>
ism s.</w>
is a</w>
in tric
hol der
fo rec
em power</w>
el eg
corrup tion.</w>
complet ed.</w>
citiz ens,</w>
ar a,</w>
ap ex</w>
ann ounce</w>
am end</w>
al ignment</w>
Tripur a</w>
Sing h.</w>
Sanskr it,</w>
Resurrec tion
Mar tin</w>
Man age</w>
MB ER</w>
LI C</w>
L earning</w>
G S
Fr on
Earli er</w>
Chandig arh</w>
Bi g</w>
Abo ve</w>
9 7</w>
197 1</w>
“” .</w>
vill ages,</w>
vel oc
ut .</w>
uc lear</w>
u x</w>
se ud
saf ely</w>
rob ust</w>
river ,</w>
revol t</w>
politic s.</w>
parti cles</w>
mat ching</w>
know n,</w>
ir ation</w>
immun ity</w>
hop ed</w>
hold ers.</w>
highl ighted</w>
he ed.</w>
hap s,</w>
des pair</w>
depend ence</w>
control ,</w>
comp act</w>
commit tees</w>
com pressed</w>
boun ty.</w>
b orders</w>
b ite</w>
b are
at ro
as ph
arbitr ation</w>
ar c
an try</w>
Unfortun ately,</w>
Tr ain
T ok
T ata</w>
Sub jec
RASHTRA PATI</w>
Prov ide</w>
Palest ine</w>
Pack age</w>
P K
Mo h
M am
Kan pur</w>
Incre ase</w>
Imper ial</w>
Gan es
Establ ishment</w>
D ip
Cy rillic</w>
Book mark</w>
Ar th
198 5</w>
' Our</w>
v end
territ orial</w>
st atic</w>
si c</w>
provis ion.</w>
promp t</w>
post -
pe dia
ob jection</w>
n ick
initi ate</w>
inherit ance</w>
infl ation</w>
ideas ,</w>
good ;</w>
famil ies.</w>
er ness</w>
end ure</w>
devo tee</w>
dev ils</w>
desi re.</w>
decis ive</w>
cyl ind
cha ir</w>
cell ular</w>
cav ity</w>
aff l
adv ent</w>
[ or</w>
Y ad
Ref resh</w>
R ain</w>
Per si
M AN
Heav y</w>
GREET INGS</w>
F ast</w>
EN G
Cont ents</w>
Con ven
Con c
Charac ter</w>
C la
Ban er
Assam ese</w>
196 1</w>
' It</w>
र ्
y ’s</w>
util isation</w>
trac ed</w>
the ore
super vision</w>
sp reads</w>
scal es</w>
s "
reveal ed,</w>
rem edy</w>
reduc es</w>
re port.</w>
re construction</w>
r oughly</w>
mort ality</w>
mind ful</w>
men str
land lord</w>
labor atory</w>
k um
k sh
id s.</w>
h our.</w>
fulf illing</w>
fin ish</w>
en i
en act
dis par
di um</w>
di amet
d ancing</w>
celebr ation</w>
be have</w>
bat tery</w>
al ?</w>
ad h
activ ate</w>
a ar</w>
[ Omitted</w>
Un its</w>
U b
Prem chand</w>
Me her
Maul ana</w>
Jo in</w>
C ENT
B hat
Ar ts</w>
Ag ain</w>
5 6
200 6,</w>
' and</w>
y et,</w>
world wide</w>
with hold</w>
w ashing</w>
ud a</w>
this :</w>
th os
tax ation</w>
sub- section,</w>
r h
provid er</w>
prov inces</w>
pros y</w>
pat ent</w>
p ation</w>
ones el
n im
law s.</w>
know ing,</w>
itor s.</w>
incumb ent</w>
in iket
g t;</w>
fet ch</w>
evil s</w>
deliber ate</w>
cul c
conspir acy</w>
cast e,</w>
cal i
br ing
as ing</w>
ac tors</w>
] ?</w>
Vic tor
Un do</w>
Regul ations,</w>
Re gular</w>
Raj iv</w>
Pharao h)</w>
Pan el</w>
Odis ha</w>
M im.</w>
Hy per
H .
Gul f</w>
G aj
Dem and</w>
Dec can</w>
D ha
Chur ch</w>
B is
Arti cles</w>
you th.</w>
w ag
triumph .</w>
templ es,</w>
t ing.</w>
sophistic ated</w>
simultane ously</w>
sev ent
sc an
remem ber,</w>
regul ated</w>
regul ate</w>
re tal
ran king</w>
pre ach
pass words</w>
p ent
ograph y,</w>
not able</w>
no is
ninet eenth</w>
n ights</w>
n ak
los es</w>
larva e</w>
larg e.</w>
in :</w>
encod ing</w>
att ending</w>
amalgam ating</w>
al a,</w>
adi an</w>
achar ya</w>
Z eal
Vis it</w>
Tr ack</w>
Sub hash</w>
Sik h
S &amp;T</w>
PRES ENTS</w>
L ou
Jinn ah</w>
I IS
Him !</w>
Fi xed</w>
Ex press</w>
Cust oms</w>
Att ach</w>
5 7</w>
w s</w>
ver ted</w>
val idity</w>
u tili
tr unk</w>
stand ards.</w>
san itation</w>
pl ead</w>
pa per,</w>
os ity</w>
marri age.</w>
l o</w>
jus ti
id al</w>
han g</w>
frustr ate</w>
fl uctu
en ;</w>
emp i
emis sion</w>
ed ges</w>
distinc tive</w>
dis ability</w>
desir able</w>
com promise</w>
clic king</w>
bur g</w>
bond men</w>
aver se</w>
ad h</w>
a an</w>
Y %</w>
UNIVER SIT
Minis ter.</w>
Hebre w</w>
Econ om
Des ign</w>
D harm
Col or
B os
Ar bitr
7 6</w>
201 4.</w>
201 4,</w>
/ -</w>
( f)</w>
“ {0}</w>
wid e.</w>
vari ations</w>
v ent
umb rel
transl ate</w>
town ,</w>
sp inal</w>
sin ners</w>
real ization</w>
post al</w>
ob sc
mail box</w>
liv e.</w>
incl ine</w>
ic )</w>
guid ed,</w>
fin anci
experim ental</w>
escap ed</w>
embarr ass
elec tro
dis solution</w>
deliver ing</w>
d ances</w>
controvers y</w>
contrac ts</w>
comm on
cl ea
citi es,</w>
cer tified</w>
cam er
breath ed</w>
bla zing</w>
bl asph
b in
ash ,</w>
achiev ement.</w>
ab ul
ab sent</w>
Territ ories</w>
T eam</w>
Sik hs</w>
Po in
Pen alty</w>
Ne uro
N in
M uch</w>
Kal am</w>
K os
K ail
Jud icial</w>
Jour n
D aniel</w>
D T
Cont ent</w>
Cer tain</w>
C ause</w>
Book marks</w>
B on
Ash ok
Arab ia</w>
Acc ep
ADDRE S
( other</w>
youn g
y ing.</w>
worship p
wisdom .</w>
tur n,</w>
trag ic</w>
though ,</w>
te ams</w>
scen es</w>
re dem
ques tion,</w>
perspec tive</w>
paren ts.</w>
off ences</w>
ne um
mirac le</w>
kind ,</w>
interest s.</w>
in culc
gu ests</w>
gi ant</w>
for g
faith !</w>
empha sized</w>
econom ically</w>
drin k.</w>
consider ation.</w>
clear .</w>
catt le,</w>
c ab
avo ided</w>
ac knowledg
Sh ort
Sank ara</w>
Prin ting</w>
Pha se</w>
M ill
L ower</w>
L ,</w>
J i</w>
I A
Himal aya</w>
F it</w>
Cl os
Blo od</w>
Affair s,</w>
2 3.</w>
198 7</w>
' He</w>
葉 he</w>
will ingly</w>
wee k,</w>
verte br
utiliz ed</w>
user name</w>
us ion.</w>
un n
ti ff
sn ak
sanc tum</w>
s ight.</w>
s ab
r ained</w>
quan tum</w>
ol ic</w>
od d</w>
net .</w>
multi lateral</w>
mil est
messeng er,</w>
machin ery,</w>
lead er,</w>
im mortal</w>
im migr
hol istic</w>
happ en.</w>
furn ishing</w>
for th.</w>
fashi oned</w>
ex chang
eth nic</w>
diabet es</w>
con stitutes</w>
carri er</w>
bre eds</w>
b s.</w>
associ ations</w>
amb itious</w>
am ind
[ from</w>
Yam una</w>
Wh ose</w>
Wat er
Ver ses</w>
Si y
SER VIC
Rev olution</w>
Rajasth an.</w>
Pos sible</w>
P A</w>
K ish
Jav a
Inst all
II ,</w>
IB M</w>
Ge org
Democr acy</w>
Ar men
9 2</w>
7 9</w>
24 5
0 9</w>
( They</w>
viz .,</w>
virtu ally</w>
ti ps</w>
t est.</w>
sp ur
said ):</w>
ri val
remun eration</w>
rebel lion</w>
re jection</w>
peopl e)</w>
part s,</w>
moment um</w>
manuscrip ts</w>
ic an</w>
fac es,</w>
evol ve</w>
d ar</w>
compil er</w>
celebr ating</w>
bac ked</w>
b as</w>
ar ro
Wa it</w>
V arma</w>
Saf ety</w>
Rec ords</w>
R oom</w>
PRA N</w>
NH S</w>
Men u</w>
L D
K hadi</w>
High way</w>
Gi br
F unction</w>
Explanation .—
E f
Dic tionary</w>
200 7.</w>
195 6
(A ugust</w>
(A )</w>
un .</w>
tom b</w>
there on</w>
t ut
succ eed.</w>
stit uting</w>
statistic s</w>
st abil
reserv o
research ers</w>
rec ep
re medi
rain ,</w>
provid ed.</w>
pre sum
po ison</w>
pi ety</w>
pers ist</w>
par don
over write</w>
now ?</w>
meas ure
ly ric
il e
hi .</w>
herit age.</w>
grac e.</w>
fear ful</w>
false hood,</w>
em an
dis like</w>
di oxide</w>
det ected</w>
deliber ately</w>
credenti als</w>
config ur
clas s,</w>
ay s,</w>
amalgam ated</w>
all ]</w>
adop ting</w>
Rot ate</w>
R ub
Pr int
Lay out</w>
Laksh mi</w>
K ak
Jad un
Isa ac
Hos pital</w>
H op
Gandhar va</w>
Electr onic</w>
D in
Cent re,</w>
Bu g</w>
Bhav an,</w>
B %</w>
A mit
5 3</w>
201 6.</w>
wi fe
vari ation</w>
tw in</w>
train ing,</w>
sa .</w>
s ed,</w>
responsibil ity.</w>
renew ed</w>
prof essor</w>
ma hal</w>
intu itive</w>
inter act</w>
indic ator</w>
in numerable</w>
in er
improv ements</w>
fulfill ed.</w>
femal e,</w>
fast ,</w>
f ive.</w>
ep her
en ess,</w>
educ ation
docum entation</w>
dig it</w>
cul tur
crow n</w>
cooper ation.</w>
conceal ed</w>
co de
ch lor
c and
borrow ing</w>
bon es,</w>
bet we
b az
avail able,</w>
ation s:</w>
as cribed</w>
ali en</w>
aksh a</w>
ag e)</w>
accord ingly</w>
Varan asi</w>
Star ting</w>
SAW ),</w>
SA W</w>
S now</w>
Pakist ani</w>
P IN</w>
O lym
Mo osa</w>
Mis sion
Manu fac
M :%</w>
INAUGUR ATES</w>
Geh enna</w>
G w
Engl and.</w>
Dec lar
Commun ist</w>
Ch ow
Cer em
C ard
C P</w>
Bal arama</w>
Bal ance</w>
A wa
(ह ं
ता ल
will ing
we igh</w>
w ala</w>
v .</w>
ul ative</w>
tic a</w>
syn c</w>
swell ing</w>
step s.</w>
st ol
sign als</w>
relation ships</w>
provis ion
port al</w>
ph y</w>
ph ras
loc ation.</w>
lim itation</w>
l ag
hos tility</w>
god d
flex ible</w>
fl ed</w>
f ame</w>
engine ers</w>
em ber
constitu ent</w>
be ware</w>
aw ful</w>
aut obi
ar ose</w>
Val mik
V oc
St reng
SM TP</w>
Ren ew
P att
Nad u,</w>
Mo del</w>
Messeng ers.</w>
Mar ri
M echan
Intell igence</w>
Fr ame</w>
Dis k</w>
Compas sion
Ch all
C are</w>
5 8</w>
13 .html</w>
( 200
' s.</w>
wom an.</w>
us ur
ur s
ular s</w>
transc end
tra p</w>
tast ed</w>
t us
t ens</w>
sum s</w>
suffic es</w>
sle w</w>
ri p
respec t.</w>
q .</w>
proc urement</w>
pow ers.</w>
pos es</w>
op en.</w>
n ac
mean ings</w>
m end
guid eth</w>
gu i</w>
far .</w>
f an
el lip
duci ve</w>
doub ts</w>
dig n
diam ond
depart ment.</w>
conveni ence</w>
comb ine</w>
circul ation</w>
b ha</w>
affl ict</w>
ac ks</w>
ab id
[ as</w>
UR E</w>
Sarasw ati</w>
S en</w>
Regul atory</w>
Nav y</w>
Muse um,</w>
Inv estig
De bug</w>
DP I</w>
Af ghan</w>
ADDRES SES</w>
7 3</w>
197 3</w>
( ताल
" How</w>
your self.</w>
yog a</w>
worl ds</w>
tiv ity.</w>
ti um</w>
suic ide</w>
succ eeding</w>
sk y.</w>
ship ping</w>
schem a</w>
rescu ed</w>
repeat edly</w>
ph rase</w>
per v
p ests</w>
p aste</w>
p ar</w>
p act</w>
no tion</w>
nin ety</w>
know ?</w>
iti es;</w>
hygi en
elec tri
e e.</w>
collec tively</w>
caus e.</w>
bear ing.</w>
att aining</w>
answ er.</w>
al located</w>
a !</w>
W ,</w>
Ver ma</w>
T ra
Se par
R ange</w>
Panchay ats</w>
Orissa .</w>
O f
Mohamm ad</w>
Miz oram</w>
L AN
Im ages</w>
F air</w>
EN D
E thi
Condi tions</w>
Assembl y.</w>
5 4
" Is</w>
univers e.</w>
tit les</w>
swe et
st res
sec uring</w>
r ated</w>
par all
one '</w>
ner g
nation alism</w>
mark et,</w>
list ,</w>
lin king</w>
li ar.</w>
kee pers</w>
journ als</w>
identi fying</w>
idd en,</w>
hor izon
false hoo
enough ,</w>
employ ment,</w>
det ect</w>
day ;</w>
con ducive</w>
comp are</w>
cav es</w>
bor row</w>
bo th.</w>
ben evol
b li
asc ular</w>
ar ound.</w>
ar an</w>
ant ly,</w>
Us ers</w>
Up per</w>
S can
Reli ef</w>
Recru itment</w>
Merci ful
Maharashtr a.</w>
J y
Indu str
In ter</w>
I cel
H ow
Dut ch</w>
CV S</w>
Bhak ti</w>
Ak bar
200 8.</w>
) ?"</w>
wit ness,</w>
vers e.</w>
un ite</w>
tu rer</w>
tr im
th )</w>
sur rendered</w>
studi es.</w>
sti ff</w>
st one.</w>
rest ,</w>
regre t</w>
rec k
rain .</w>
qu e.</w>
programm es,</w>
polic ies.</w>
p ays</w>
migr ated</w>
mail .</w>
j un</w>
inspir ing</w>
ing s;</w>
hypocrit es,</w>
gram mar</w>
form at.</w>
foot steps</w>
factor ies</w>
expres sion.</w>
doctr ine</w>
dis clos
concentr ated</w>
co at</w>
bri d</w>
brea thing</w>
auc tion</w>
are ;</w>
al tar</w>
addres s.</w>
Vij ay
U D
Tel ephone</w>
Sp anish</w>
Sam aj</w>
Raj put</w>
Q .</w>
Perform ance</w>
Man tri</w>
Li b
I F</w>
Foc us</w>
F ak
EN D</w>
Dom ain</w>
Brow ser</w>
6 3</w>
201 3.</w>
' S
y ),</w>
vis ion,</w>
unt u</w>
u ated</w>
trac ks</w>
tol d
th ine</w>
staff .</w>
sp hr
sk ins</w>
she er</w>
send eth</w>
sec tion
s k</w>
res ist</w>
requ ited</w>
prosper .</w>
pri ze</w>
pres tige</w>
por tions</w>
parti ally</w>
ol f</w>
nig gard
method .</w>
man a</w>
m ill</w>
lo yal</w>
lak h
journe y,</w>
in direc
g our
fruit ful</w>
fol k.</w>
expect ations</w>
exampl e.</w>
entrepreneur ship</w>
direc tors</w>
des p
cro ok
cour ty
cont ent.</w>
cl eared</w>
capac ities</w>
ber ry</w>
bab ies</w>
authentic ate</w>
ap p</w>
amaz ing</w>
alco hol
ad es.</w>
Vig yan</w>
View er</w>
Ta g</w>
Qu e
Pen al</w>
Ord in
O FF
M ish
M AR
J on
Ign ore</w>
He ight</w>
H :%</w>
Ethi op
D ro
Cap acity</w>
Bre ak
Bi j
A WA
0 5</w>
) ],</w>
( "
व ा
{PRODUCT NAME}</w>
up ta</w>
un expected</w>
ul ates</w>
trag edy</w>
th reshold</w>
suppor t,</w>
secret ary</w>
reg ions.</w>
re stor
re puted</w>
ra ft</w>
organiz ation.</w>
j unc
inter val
individu als,</w>
ic ks</w>
hospit als</w>
hind er</w>
hi a</w>
heart felt</w>
graph ics</w>
go at</w>
gener al,</w>
full screen</w>
four .</w>
f an</w>
es tern
elo qu
cr ad
con clude</w>
compos ite</w>
bl os
ali ke</w>
al chem
Wiki pedia
U .
Sw ades
Sund ay</w>
Rec ur
RA L</w>
R SS</w>
Publ ications</w>
Orig in
Inf o</w>
High ness</w>
Hal f</w>
Gr and</w>
F u
BE G
A th
whol e,</w>
vot es</w>
ug g
t an</w>
sw im
st age,</w>
reward ,</w>
recip ient</w>
re th</w>
quar ter
orp han</w>
o t.</w>
mountain s.</w>
mon um
im bur
gr a</w>
giv eth</w>
g ent</w>
fre ight</w>
f -
ev an</w>
et or
establish ed.</w>
ers ’</w>
deb ts</w>
blasph em
back s,</w>
av as</w>
assembl ed</w>
arro gan
W est.</w>
VP N</w>
Type :</w>
Syn chron
Singap ore</w>
SAW ):</w>
Ram mo
Priy ob
O s
Har v
H eal
G D
F ut
Compl ete</w>
Attach ment</w>
Asi atic</w>
Ar chaeological</w>
A lif
80 -
(हं सी)</w>
( so</w>
( like</w>
” ?</w>
websit e.</w>
w all.</w>
us es.</w>
under ground</w>
type :</w>
tow er</w>
the e;</w>
th ly</w>
tal a</w>
sy l
sub du
small est</w>
schem es.</w>
propor tion
programm e,</w>
po et
is ation.</w>
insec ts.</w>
inf ant</w>
in iqu
in )</w>
hear ,</w>
gre y</w>
g ram</w>
fold ed</w>
ed ).</w>
e ighty</w>
e ?"</w>
demer ged</w>
del ight
d ual</w>
beli ever,</w>
attach ments</w>
WIT H</w>
Tibet an</w>
See ing</w>
R up
R econ
Pro pos
N uclear</w>
Ke eping</w>
Joh n
Gad u</w>
G haz
G aut
D aw
Curren tly</w>
Conver t</w>
Consol idated</w>
Ad just
7 1</w>
( And</w>
world ;</w>
wand er</w>
ver sion.</w>
upgrad ation</w>
song s.</w>
serp ent</w>
prov incial</w>
prev ail</w>
pe a</w>
p ond</w>
mercy ;</w>
mat ched</w>
livest ock</w>
liv es,</w>
laborator ies</w>
kitch en</w>
k o</w>
itt en</w>
it a.</w>
innov ation.</w>
influ ences</w>
har sh</w>
h ut</w>
fing er
f resh
expres sing</w>
exc eeded</w>
disbeliev ing</w>
dem ol
del ta</w>
cur ios
concentr ate</w>
con tributes</w>
ch ari
bure auc
ban quet</w>
appe aled</w>
an ing</w>
am bul
alleg iance</w>
alik e.</w>
air port</w>
ac ts.</w>
abro ad,</w>
Wikipedia :</w>
W e,</w>
There upon</w>
Stre et</w>
Sign ific
Set up</w>
O S
Niv ed
Maj est
M L
K ,</w>
Grou ps</w>
Ch it
CON DO
C amp
C RE
Be hold,</w>
B utt
Apost le,</w>
AR E</w>
200 3,</w>
( whether</w>
y s,</w>
w ra
w inter
tr l</w>
tab s</w>
t a.</w>
sy nerg
sur ger
similar ly</w>
sh ock</w>
seed s,</w>
safe guard</w>
sacrif ices</w>
sa ,</w>
rub ber</w>
remov ed.</w>
qualific ations</w>
pronounc ed</w>
produc ers</w>
poss esses</w>
pois on
p s,</w>
out going</w>
o t,</w>
knew .</w>
k a,</w>
ire d.</w>
individu al.</w>
i ii</w>
gre eting</w>
gov .</w>
for um</w>
expl aining</w>
exclud ing</w>
ensu res</w>
ec e</w>
demonstr ation</w>
consum ed</w>
clean ing</w>
bur ned</w>
b it.</w>
are )</w>
ans )</w>
am us
ain e</w>
ad missible</w>
abh uti</w>
W eal
V OC
Un like</w>
Sanskr it.</w>
Sal at</w>
S ent</w>
Prophet !</w>
O L</w>
N OR
Ma x</w>
Her e,</w>
D id
Cor ona</w>
Consul t
Construc tion</w>
B lu
B ill,</w>
Ar ound</w>
26 9
( all</w>
क ्
woo d.</w>
will ;</w>
us :</w>
train ing.</w>
tr ains</w>
tex ture</w>
t en,</w>
stop p
sm ell</w>
seiz ure</w>
se p
s ni
re tribution.</w>
re tail</w>
prospec ts</w>
pric es.</w>
persist ent</w>
not ation</w>
liv ing,</w>
lin es,</w>
leg end
land ed</w>
l end
l ed.</w>
l as</w>
int oler
ins cribed</w>
infid els</w>
im bi
hon ey</w>
here in</w>
exp end</w>
exclus ion</w>
en ed,</w>
em bodied</w>
ed %</w>
ec ological</w>
dis count</w>
dis advant
des per
conduc t.</w>
cent ers</w>
burd ens</w>
br ut
be an</w>
b ub
b owed</w>
ancest ors</w>
adv enture</w>
a q
` %</w>
Ve er
V I</w>
Thr one</w>
Peri od
I M</w>
Hon ’ble</w>
H ost</w>
Curren cy</w>
Con go</w>
Chat ter
C MS</w>
Bus y</w>
Ap prov
: )</w>
9 3</w>
(ताल िया
year ;</w>
us al</w>
t ud
subjec ts.</w>
sovere ign</w>
s q</w>
plo group</w>
o e
new s,</w>
modif ications</w>
moc ked</w>
mil k,</w>
messeng ers.</w>
message %</w>
mass es.</w>
manif est.</w>
mag icians</w>
it ."</w>
inscrip tion</w>
i ous.</w>
guil ty.</w>
gu ile</w>
gen ital</w>
find ings</w>
few .</w>
fe eds</w>
en ?</w>
electr on
edi ble</w>
dis semination</w>
dis missed</w>
develop s</w>
dev ised</w>
dec iding</w>
de er</w>
compan ies,</w>
choos es</w>
beli e</w>
beaut y.</w>
anc y,</w>
ail ,</w>
ac king</w>
Tr umpet</w>
Th ee</w>
Ric hard</w>
Rel ease</w>
R s.
Priyob ro
Par al
P GP</w>
L od
L IS
K B)</w>
Go v</w>
F IR
Director ,</w>
D aily</w>
C z
Bezbar oa</w>
Appl ications</w>
6 1</w>
2 4.</w>
wit ness.</w>
tuber cul
there from</w>
t ended</w>
t ...</w>
substitu ted</w>
su perf
sol ic
shop ping</w>
shap ing</w>
sc our
require ments.</w>
rel uc
regul ating</w>
read ,</w>
re lax
prin cip
prestig ious</w>
percent .</w>
other wise,</w>
op pressed</w>
lov eth</w>
li e.</w>
li e
legislat ure</w>
learn ing,</w>
l oud
k is
issu es,</w>
instrum ent.</w>
imperi alism</w>
ha j
graph ical</w>
gran ting</w>
govern ance.</w>
fre e.</w>
fre e,</w>
feed back</w>
ens ation</w>
ed ed</w>
eaf ter.</w>
dev our</w>
cu is
coun ting</w>
contemp t</w>
car v
capac ity,</w>
c y.</w>
asses see
ak i</w>
Wh oso</w>
Un believers</w>
Tour ist</w>
Su laim
S t</w>
S pr
Ram akrishn
Prak ash</w>
N G</w>
M ight,</w>
Log in</w>
Ital y</w>
In str
Gandhi an</w>
Fr ag
F et
Cont roller</w>
Cali for
2019 ).</w>
2 ),</w>
( Pharaoh)</w>
'{0} '</w>
warn ings</w>
ver ification</w>
uni or</w>
tiv ity,</w>
sk ir
sa ff
ru in
ri k</w>
re sum
rac ial</w>
pre lim
practi se</w>
ple a</w>
pi erc
pen se</w>
p har
ou ts</w>
organ ising</w>
multipl ied</w>
mast ery</w>
main tains</w>
inv ites</w>
id ge</w>
hil ly</w>
expl ain
exc laim
evalu ate</w>
emb er.</w>
dimen sions</w>
defin es</w>
de part</w>
be qu
at om</w>
associ at
app ea
aj ,</w>
ad ash
activ e.</w>
V ir</w>
V ad
Un ion.</w>
Templ ate</w>
St one</w>
S cal
Rec ip
Pi x
Not es</w>
Merci ful,</w>
Ma thematic
Lu x
L Y</w>
Har ish
G ent
F ull
Exam pl
Ex ten
Brow se</w>
Aw are.</w>
Aut o
A d</w>
A G
198 4</w>
10 0,</w>
0 2</w>
( File</w>
you ths</w>
w ashed</w>
un it.</w>
um ber</w>
tri ya</w>
tor ment,</w>
su s</w>
st rain</w>
so il.</w>
recur ring</w>
rail ways</w>
ph er
pa per.</w>
p y</w>
ou l</w>
o ch
no bl
minut es.</w>
met abol
manifest ation</w>
m ate</w>
ly mp
ic op
i b</w>
hea p</w>
fiel ds,</w>
fast .</w>
fail ure.</w>
exc iting</w>
ex changed</w>
effor t.</w>
develop ed.</w>
cur ve</w>
con s</w>
comm its</w>
bir th,</w>
benef it.</w>
b is</w>
b )</w>
attain ment</w>
as certain
appro ve</w>
anti qu
ad joining</w>
Worl ds.</w>
Vig ilance</w>
Upan is
U kr
Tom or
Stor age</w>
Sh u
Qu ick</w>
PA O
No tific
Kolhat kar</w>
D e</w>
C ase</w>
Bot tom</w>
Be hold!</w>
Atom ic</w>
194 9</w>
0 3</w>
wom bs</w>
ur ban
teach es</w>
sick ness</w>
session .</w>
s log
s light</w>
rupe es,</w>
re marks</w>
pr oud
post ing</w>
par a
on eness</w>
oblig atory</w>
mou th.</w>
lev y</w>
le op
lay ers</w>
la red</w>
ke y,</w>
journe y.</w>
ji had</w>
it u
intox ic
impl ications</w>
imag ined</w>
hel pers.</w>
estim ates</w>
embrac ed</w>
dimen sion</w>
d in</w>
crop s,</w>
conscious ness.</w>
cons isted</w>
cin ema</w>
ber g</w>
be fell</w>
ar chaeological</w>
ac knowledge</w>
Si x</w>
RE G
P ER
Guar di
Gr acious</w>
GT K</w>
Bhav abhuti</w>
Bhag w
Avi ation</w>
, ]</w>
w ool
w ire</w>
tor ney</w>
thin king.</w>
the .</w>
sou th.</w>
sign at
rhyth m</w>
requ ite</w>
re wards</w>
re productive</w>
prim itive</w>
pray ers,</w>
pot ent</w>
po et.</w>
pe tr
ot t
oce ans</w>
o b</w>
new er</w>
need ed.</w>
n ex
mistak es</w>
labour ers</w>
inter view</w>
inter im</w>
inaug uration</w>
in stitut
i ate</w>
gener ation,</w>
gard en,</w>
flow ers.</w>
fl ora</w>
fi bre</w>
es ’</w>
ep hal
emo tions</w>
elev ated</w>
disobedi ent</w>
dis play
did st</w>
dark ness.</w>
cra w
contain er</w>
com prised</w>
chasti se</w>
calcul ation</w>
c ig
br ick</w>
bi om
bha k
ati le</w>
an ism</w>
U su
Sult an</w>
Stud ents</w>
Ste el</w>
Soci eties</w>
S even</w>
Rem embr
Prov inces</w>
PC L</w>
P ause</w>
Over seas</w>
NGO s</w>
M T</w>
K as
Jus tic
H oo
Guar dian</w>
Gu ide</w>
D j
C all
Author :</w>
A ustri
195 1</w>
view s.</w>
u pro
there upon</w>
ther mal</w>
sha ken</w>
s ?"</w>
row ing</w>
ro les</w>
reckon ing</w>
rain y</w>
public ,</w>
provid ent</w>
organ ize</w>
op tical</w>
nec ks</w>
mention ed,</w>
mankind !</w>
lux ur
los s,</w>
inter -
in dispens
illustr ated</w>
ili ary</w>
hypoc ris
electr onics</w>
eld est</w>
e /
dialo gu
devo te
delet ed.</w>
de e</w>
daugh ters,</w>
d umb
cor on
cont empor
ceremon ial</w>
can al</w>
br ain
bor n,</w>
arch it
ar ray</w>
ann er</w>
al ms</w>
accord ingly.</w>
V el
Rav ana</w>
Prophet ),</w>
J og
J ai</w>
Infl ammation</w>
F requ
E T</w>
Dra g</w>
DAT ED</w>
D uty</w>
D s</w>
Ass am.</w>
A gen
5 ;</w>
3 0.</w>
2017 ).</w>
un ity.</w>
town .</w>
tar ried</w>
smo king</w>
sleep .</w>
shif ting</w>
sh at
se ?</w>
restr ained</w>
promis ed.</w>
proclaim ed</w>
precis ely</w>
ph ones</w>
out lay</w>
observ ations</w>
mo t
marg in
mag ic.</w>
log ging</w>
k ir
invest or</w>
ing (a)</w>
in king</w>
ide ology</w>
id s,</w>
i tion.</w>
high ,</w>
harmon ious</w>
griev ed</w>
grac e,</w>
g at
g al</w>
fer tile</w>
exp iration</w>
en force</w>
e worthy.</w>
de priv
compar able</w>
ch ip
c ord</w>
c ook</w>
br ide</w>
br a</w>
au d</w>
ar :</w>
approach .</w>
and i</w>
afterno on</w>
Z ion
Uz be
U ID</w>
The at
St an
S ind</w>
Res olution</w>
Pur i</w>
Perman ent</w>
Mar ine</w>
L ate</w>
In dic
Gr aph
Fer tiliz
F ind
E ST
Devanag ari</w>
Depart ment,</w>
Bh ub
8 7</w>
201 4)</w>
200 5,</w>
2 1
y as
wh it
ver dic
ur .</w>
un fair</w>
trou bled</w>
to tal
templ es.</w>
se y</w>
rol e.</w>
rep ut
rec iting</w>
p ap
ounc ed</w>
ord er
on )</w>
obe ys</w>
no thing,</w>
messeng ers,</w>
loo k,</w>
lead ers.</w>
law s,</w>
l ords</w>
il s,</w>
gl uc
fur ther
forgiven ess,</w>
fol io</w>
explo ited</w>
en closed</w>
ed ged</w>
ec lip
dro ve</w>
dom estic
dat a,</w>
claim ,</w>
challeng es.</w>
breth ren</w>
ban yan</w>
bal ance.</w>
ar id</w>
al arm
ag ed.</w>
accep t,</w>
_ 02
_02 .html</w>
W ing</w>
V il
Sup ply</w>
Shastr i</w>
Schem e,</w>
Sa ha</w>
S till</w>
S culp
Revi ew
Punjab .</w>
Pro xy</w>
P sy
Oc e
O K</w>
Jagann atha</w>
Ha plogroup</w>
G ob
F ace</w>
Domin ion</w>
Compl eted</w>
Bhop al</w>
B IR
26 th</w>
{ BEG
y ."</w>
tri ump
thre ats</w>
sc rat
sacrif ice.</w>
res ili
public ly</w>
mus e
mod ul
men tions</w>
lumin ous</w>
l y:</w>
j ag
is sion</w>
hi d</w>
h iding</w>
gras p</w>
fur ther.</w>
fund ed</w>
fr anch
exempl ary</w>
en rich</w>
ed ly,</w>
di ed.</w>
deal er</w>
breast s.</w>
bor n.</w>
b one.</w>
ar se</w>
acces sibility</w>
Tel ang
Satyagra ha</w>
S ri
Orissa ,</w>
K ala</w>
In struc
In clude</w>
I tem</w>
Hy dro
Fel low
Ev olution.</w>
Depart ment.</w>
Cur sor</w>
Crow n</w>
Con fl
Acc ept</w>
201 2.</w>
197 0</w>
00 0,</w>
' s,</w>
{2 }</w>
z eal</w>
wee ks.</w>
wed ding</w>
war s</w>
upl if
tion ally,</w>
t ough</w>
seem ing</w>
school s,</w>
sav ed.</w>
s ight,</w>
s ag
re start</w>
patri otic</w>
ne ph
metr ic</w>
mer ge</w>
man tra</w>
ly ?</w>
lo an.</w>
leg end</w>
it ter</w>
is ed,</w>
intermedi ate</w>
hop e,</w>
gre at.</w>
g ateway</w>
fail ing</w>
exha us
ex hibi
ep s</w>
enrich ed</w>
enem y,</w>
em on</w>
ell .</w>
elder ly</w>
el ation</w>
dis tribut
dis trac
di arr
compl im
character s.</w>
bod ily</w>
bad ly</w>
at %</w>
an :</w>
W ords</w>
V O
Upan isha
T ul
Statistic s</w>
Sovere ign
Retri eving</w>
R ig
Priyobro to</w>
Presid ency</w>
Per mission</w>
Pass word:</w>
Pal lava</w>
PA N</w>
Mr s.</w>
Mov ing</w>
Jo b</w>
Java Script</w>
Jadun ath</w>
Im prov
Hor ticul
Hear ing</w>
Gur u
Gur b
G )</w>
FE REN
E li
Dut t</w>
Dis cus
Cour se</w>
Ar yan</w>
3 1
स ्
{ NU
z ones</w>
y ana</w>
trans gress</w>
tiv ely,</w>
th ful</w>
sum mer
see ?</w>
restric tion</w>
ren ess</w>
reli eved</w>
pri ests</w>
philosoph y.</w>
p an</w>
ordin ance</w>
oppos ing</w>
oper ator</w>
nov el,</w>
ne ed.</w>
mu ch,</w>
moc k
li ed</w>
l ig
l ed,</w>
ing s:</w>
hous es.</w>
holid ay</w>
gol d,</w>
fix ing</w>
fast ing</w>
exag ger
ex ual</w>
ex al
ep il
en shr
econom ic,</w>
eas i
dri ves</w>
dr um
dev ast
connec ts</w>
club s.</w>
chem ic
cal ci
c es</w>
bar s</w>
ann um</w>
alco hol</w>
al is</w>
acc ess
a iss
Vrind av
Vidyas agar</w>
VOC ATION</w>
Tar get</w>
Sant iniket
SO C
S oil</w>
O CC
Meher ally</w>
Mahar shi</w>
Kh an,</w>
Isa ac</w>
I bl
Hon our
Hen ry</w>
H ot
Gre ater</w>
Forgiv ing.</w>
For mat
Differ ent</w>
Chro mium</w>
CON VOCATION</w>
C trl</w>
Allah ."</w>
AID S</w>
A x
8 9</w>
2 -
( 196
“ When</w>
{BEG IN</w>
war rant</w>
v e,</w>
u tra</w>
tri p</w>
tr un
ta p</w>
surv ival</w>
stro ke</w>
sti r
stead ily</w>
spea ker</w>
seg ments</w>
scrut in
scre en
rev enu
resign ation</w>
r age</w>
prelim inary</w>
pover ty.</w>
op tion.</w>
og ram</w>
occasion ally</w>
no ,</w>
negl ig
need y,</w>
mur der
law yer</w>
la ud
it ating</w>
in te
impug ned</w>
hr s</w>
ect ed,</w>
drow n
do om.</w>
discre tion</w>
del eting</w>
def ect</w>
cris is.</w>
com positions</w>
col ored</w>
cla y,</w>
author ities.</w>
aud ited</w>
akh sh</w>
adjust ed</w>
\ \</w>
Tim e
S ag
S CHE
Man ik</w>
Mak ing</w>
MO N
L L
Kh il
Hind us,</w>
H ir
God ."</w>
Docum entation</w>
Cor on
C ub
Bihar i</w>
A ver
9 4</w>
y et.</w>
y ar</w>
thank ful</w>
th ed</w>
sub mis
sh y</w>
scenari o</w>
sanc tuary</w>
s ound.</w>
rupe es.</w>
resid ing</w>
repl ies</w>
proc ession</w>
poem s,</w>
pleas e.</w>
opin ions</w>
nom inal</w>
neighb ours</w>
mini ature</w>
met aph
lak es</w>
j ack</w>
insu red</w>
in ch</w>
if ,</w>
ha v</w>
gran de
fron t.</w>
f ant
ern al</w>
er s!</w>
enjo ys</w>
enc e:</w>
emb lies</w>
eigh teen</w>
educ tion</w>
ect omy</w>
docum ent.</w>
di es
dea f
conver ting</w>
confid ence.</w>
concer ted</w>
compreh en
author itative</w>
ass emble</w>
add ed.</w>
acc essing</w>
Y ea
UL T
Tow ards</w>
Sy ed</w>
Sha red</w>
Sh im
Sadd am</w>
ST IT
S H</w>
Regul ation)</w>
Pr ab
Parliam ent
Nob ody</w>
Ne ther
Mal ab
M ighty</w>
J as
Hus se
Hos pit
Dhar ma</w>
C are
B am
B B
Ac ts</w>
AP I</w>
A ch
25 %</w>
200 1.</w>
а т
yiel ding</w>
vo ic
ure :</w>
ur ine</w>
tra its</w>
tim e:</w>
ter med</w>
ste ad,</w>
sp ouse</w>
soci ally</w>
sincer ely</w>
sa ith
runn ing.</w>
ro d
qual ification</w>
prior ities</w>
patron age</w>
op hy
o h</w>
mul titude</w>
min i</w>
me :</w>
manufactur ers</w>
magnit ude</w>
le is
j am
inv en
inter course</w>
igh ter</w>
ic tion</w>
humili ation</w>
h d
grad ual</w>
firm .</w>
few er</w>
ep ,</w>
el ect</w>
el e</w>
eff ected</w>
e ’s</w>
d ose</w>
ati call
ast ing</w>
ap ol
amalgam ation</w>
adv ance.</w>
ad just</w>
ach ,</w>
V it
Tha il
T own</w>
Sud den
Sanc tuary</w>
Requ ired</w>
Prepar ing</w>
Par as
P ond
N T
Main tenance</w>
Mail box</w>
Maha devi</w>
M um
L y
L ov
Jos hi</w>
I b
Egyp t,</w>
Debug ger</w>
Coun try</w>
C hat</w>
C ant
201 3)</w>
197 2</w>
13 0</w>
.201 8</w>
- up</w>
( they</w>
“ There</w>
vo ice.</w>
un anim
trac es</w>
tr iv
tigh t</w>
them ):</w>
tar .</w>
st ation.</w>
sor ry</w>
s ang
receiv ed.</w>
re bel</w>
pit ch</w>
nam es,</w>
multipl ication</w>
m ask</w>
l ung</w>
knowledge ;</w>
jud ic
interpre t</w>
im itation</w>
hy brid</w>
hard er</w>
form ul
det h</w>
d ung</w>
cre ed</w>
contrac t.</w>
ban k,</w>
assum ption</w>
approach ing</w>
ap e</w>
allow ances</w>
al '</w>
Weal th-
Th ink</w>
Subha sh
R anj
P hon
N ab
Mic ro</w>
M ouse</w>
Lo t,</w>
Inter face</w>
I f,</w>
DA C</w>
D ynam
Com ment
Ch e
Cent ury</w>
Celebr ations</w>
ATIO N
A SION</w>
wi reless</w>
warn ing.</w>
w ears</w>
vis ible.</w>
triump h</w>
til l,</w>
shame ful</w>
relation ship.</w>
radi o
r ushed</w>
ques tions.</w>
port s,</w>
po ol
ple aded</w>
pip e</w>
photo graph</w>
pas s,</w>
pan els</w>
ourselv es.</w>
ot es</w>
mom ent,</w>
m as</w>
lo yalty</w>
l uck</w>
k et
it ous</w>
in ward</w>
impl ies</w>
impl ied</w>
ic her
h ini</w>
expl oration</w>
exclud ed</w>
escap e.</w>
er ’s</w>
envis ages</w>
dou bled</w>
disbelief ,</w>
dis regard</w>
diamond s.</w>
deser ves</w>
de es</w>
consum p
compassion ate.</w>
cla us
bas e.</w>
attend ance</w>
ass et
ag r
adv anc
Y aj
SID BI</w>
Ramal inga</w>
Off line</w>
Obe y</w>
Naw ab</w>
N B
Mis cellaneous</w>
Memor andum</w>
MSME s</w>
Know er,</w>
Judg ment.</w>
I E
Guaran tee</w>
Gener ic</w>
Gener al,</w>
Dev el
C laim
C ath
Brahmin s</w>
Bo ard,</w>
Believ e!</w>
Ar c
Angl o</w>
200 6.</w>
200 2,</w>
194 7,</w>
x )</w>
win ners</w>
up on,</w>
tonn age</w>
tif ying</w>
teach ers,</w>
st a
sol itary</w>
shap e.</w>
ser vi
sci ences</w>
sam e,</w>
rev ived</w>
rest rain</w>
replac ement</w>
recomm end</w>
qu ote</w>
propag anda</w>
p s.</w>
p ick
out :</w>
ough t,</w>
[...]
